<unk>	0
<s>	0
</s>	0
▁the	-3.19386
▁,	-3.2194
-	-3.595
▁of	-3.71716
s	-3.79023
▁in	-3.93129
▁"	-3.93142
▁-	-3.94536
▁and	-4.04067
▁.",	-4.05747
▁a	-4.11169
1	-4.13628
▁is	-4.2867
ed	-4.53229
▁to	-4.55714
▁.	-4.56721
▁	-4.58028
RRB	-4.69155
0	-4.7366
,0	-4.9306
▁was	-4.97032
▁''	-5.01769
L	-5.06521
RB	-5.11838
▁.,	-5.14944
ing	-5.20538
▁as	-5.36412
▁for	-5.39918
▁The	-5.41854
▁by	-5.42353
▁on	-5.46579
▁'	-5.57534
B	-5.61843
y	-5.64989
▁with	-5.66575
The	-5.69593
d	-5.69641
ly	-5.70747
LR	-5.75328
▁that	-5.77609
▁from	-5.77774
.	-5.78542
▁an	-5.82229
▁are	-5.84252
▁or	-5.89934
▁be	-5.96827
▁at	-6.03293
,1	-6.12299
e	-6.12784
▁his	-6.17374
▁which	-6.2258
",0	-6.24273
▁it	-6.25689
▁:	-6.30628
▁also	-6.37418
▁It	-6.3825
▁has	-6.41819
▁he	-6.42756
▁;	-6.46602
In	-6.47817
▁born	-6.48102
▁first	-6.49098
▁were	-6.56437
▁France	-6.56581
▁one	-6.61327
▁who	-6.66369
▁not	-6.72621
a	-6.73137
Ã	-6.7536
▁United	-6.75598
▁known	-6.77523
▁department	-6.78656
▁have	-6.82321
▁its	-6.82573
▁city	-6.83731
▁A	-6.86011
▁commune	-6.88149
▁region	-6.89972
n	-6.90554
▁but	-6.9153
▁other	-6.91969
▁their	-6.93409
O	-6.96121
▁used	-6.96688
▁had	-6.96902
▁He	-6.98395
▁States	-7.00076
▁two	-7.01087
It	-7.0171
▁American	-7.02493
▁found	-7.04427
▁most	-7.05653
▁can	-7.06251
o	-7.08083
▁called	-7.09206
▁after	-7.10319
th	-7.12086
▁football	-7.14655
▁into	-7.17259
▁this	-7.17294
er	-7.2005
▁name	-7.20514
▁her	-7.22789
been	-7.23817
/	-7.23898
▁about	-7.2508
▁made	-7.28745
▁part	-7.2909
▁more	-7.29235
▁people	-7.30781
▁when	-7.30886
▁all	-7.34922
▁New	-7.35195
es	-7.35414
▁many	-7.36308
▁time	-7.36322
us	-7.36467
▁such	-7.36572
de	-7.37403
▁between	-7.37452
▁de	-7.37557
t	-7.38031
▁player	-7.38922
came	-7.41149
▁only	-7.42469
on	-7.42567
▁they	-7.43018
▁over	-7.43024
▁2	-7.45261
▁than	-7.45708
He	-7.47297
▁some	-7.48846
A	-7.4968
▁former	-7.49764
▁World	-7.49879
▁north	-7.50115
▁&	-7.51119
▁where	-7.52848
▁English	-7.53493
▁In	-7.54126
▁1	-7.54412
▁team	-7.55734
▁years	-7.56442
▁state	-7.57559
▁located	-7.58762
al	-7.60275
▁dur	-7.61922
▁three	-7.6229
▁I	-7.62957
▁area	-7.66475
▁up	-7.66737
▁S	-7.68442
▁second	-7.68625
▁town	-7.68667
ie	-7.68896
▁year	-7.70234
▁May	-7.70354
▁German	-7.71915
Calais	-7.72088
▁September	-7.72181
▁through	-7.72261
▁British	-7.72488
▁band	-7.73286
▁January	-7.73294
▁well	-7.73384
▁new	-7.74045
▁3	-7.7515
▁there	-7.75398
▁album	-7.75484
▁work	-7.75599
▁released	-7.756
▁series	-7.76063
▁â	-7.76473
▁under	-7.77286
▁she	-7.77355
▁County	-7.77459
▁may	-7.77613
▁August	-7.78139
▁often	-7.78196
▁October	-7.78639
▁March	-7.78714
▁number	-7.78954
▁later	-7.78977
▁current	-7.79726
▁July	-7.79749
▁June	-7.79878
▁--	-7.80353
▁world	-7.80604
▁This	-7.80981
▁named	-7.81821
▁North	-7.81981
▁South	-7.82272
▁music	-7.83141
▁C	-7.83321
▁England	-7.83457
▁including	-7.84893
▁film	-7.84899
i	-7.85211
▁use	-7.85221
▁December	-7.85657
▁November	-7.86278
▁April	-7.86405
▁University	-7.86972
S	-7.87466
▁south	-7.87643
en	-7.87779
until	-7.88039
▁War	-7.88125
▁season	-7.88288
▁played	-7.88328
▁main	-7.88987
▁him	-7.89106
▁game	-7.89251
▁2007	-7.89283
▁out	-7.89339
▁being	-7.90087
▁February	-7.91192
▁U	-7.9203
▁would	-7.92556
▁di	-7.92686
▁4	-7.93298
▁both	-7.93471
▁London	-7.93484
▁French	-7.93511
ic	-7.93548
▁family	-7.94699
▁population	-7.95267
▁district	-7.95789
▁National	-7.95914
▁km	-7.96234
▁capital	-7.96453
▁ndash	-7.96469
▁then	-7.97036
▁`	-7.97821
▁group	-7.98048
▁national	-7.98091
ies	-7.98182
▁show	-7.98318
▁system	-7.98465
▁will	-7.98806
▁largest	-7.9909
\/	-7.99142
▁10	-7.99787
▁very	-8.00998
▁them	-8.01016
▁15	-8.01116
▁large	-8.01216
▁century	-8.01245
▁end	-8.01343
▁F	-8.01803
▁5	-8.01864
▁same	-8.01882
▁Germany	-8.01969
▁20	-8.02207
▁like	-8.02507
▁form	-8.02878
▁d	-8.03019
▁2006	-8.03187
▁usual	-8.03363
▁small	-8.03423
▁before	-8.03485
▁four	-8.03799
▁E	-8.03907
▁won	-8.04158
▁League	-8.04426
▁2008	-8.04867
r	-8.05936
▁John	-8.06089
▁since	-8.06575
▁whil	-8.06697
▁D	-8.0685
▁because	-8.06995
▁II	-8.07425
l	-8.07775
▁now	-8.07952
▁Japanese	-8.08532
▁place	-8.08733
▁B	-8.09273
▁no	-8.10329
▁early	-8.11283
▁several	-8.11659
▁so	-8.11841
▁6	-8.1185
▁M	-8.12503
",	-8.12655
▁around	-8.12902
▁City	-8.13041
▁12	-8.13163
▁best	-8.13375
▁16	-8.13438
▁official	-8.13837
On	-8.15332
▁plays	-8.15886
▁near	-8.16437
▁northern	-8.16592
▁language	-8.16598
▁any	-8.16737
▁long	-8.17179
'	-8.17779
▁York	-8.18005
▁different	-8.1814
▁each	-8.18799
▁King	-8.1892
▁River	-8.18951
▁major	-8.1897
▁million	-8.19227
▁2005	-8.19828
▁government	-8.19918
▁species	-8.20061
▁17	-8.20788
▁become	-8.21855
▁%	-8.22685
▁m	-8.2288
▁television	-8.23132
▁7	-8.23337
▁water	-8.23525
▁term	-8.23551
▁13	-8.23571
▁record	-8.23793
▁b	-8.23902
▁last	-8.24157
▁8	-8.24215
▁n	-8.24586
though	-8.24615
After	-8.25453
▁province	-8.26471
ity	-8.26532
▁common	-8.27223
▁18	-8.27228
▁general	-8.27262
▁professional	-8.27362
▁14	-8.28107
▁written	-8.29186
▁these	-8.29284
▁country	-8.29292
▁against	-8.30139
▁title	-8.30199
▁municipality	-8.30225
▁T	-8.3035
▁own	-8.30659
▁rock	-8.31073
▁19	-8.31085
▁popular	-8.31124
▁Australia	-8.31282
an	-8.3155
▁Kingdom	-8.31763
m	-8.31812
▁home	-8.31989
▁President	-8.32999
This	-8.33203
▁Pas	-8.33218
▁11	-8.33245
▁2009	-8.33811
▁life	-8.33965
▁America	-8.34064
▁30	-8.3482
▁include	-8.35147
▁West	-8.35206
▁R	-8.3546
▁west	-8.35564
▁single	-8.35684
▁t	-8.35968
▁2000	-8.35984
C	-8.36221
▁sometimes	-8.36744
▁Japan	-8.37062
le	-8.37136
▁9	-8.37443
▁e	-8.37633
▁high	-8.37973
▁famous	-8.38088
▁member	-8.3858
▁appear	-8.38706
▁2004	-8.39267
▁death	-8.39331
▁Roman	-8.3987
▁created	-8.39944
▁East	-8.4005
▁Nord	-8.40197
▁song	-8.40289
▁do	-8.40522
▁along	-8.40813
▁started	-8.41057
▁make	-8.41376
▁book	-8.41377
▁H	-8.42125
▁25	-8.42136
▁St	-8.42188
▁short	-8.42423
Pas	-8.4256
▁important	-8.42678
▁G	-8.42812
▁Italian	-8.42908
▁word	-8.43377
in	-8.43562
▁P	-8.43764
▁history	-8.44091
able	-8.44416
▁consider	-8.44417
▁al	-8.44569
▁third	-8.44839
▁school	-8.45032
▁period	-8.45384
▁Saint	-8.45577
▁Europe	-8.45904
▁She	-8.46042
▁built	-8.46058
▁see	-8.46399
▁published	-8.47161
▁Aisne	-8.47778
▁did	-8.48121
▁back	-8.48365
ion	-8.48898
▁Republic	-8.48987
▁24	-8.49016
▁county	-8.49371
▁Picard	-8.49686
▁son	-8.49758
▁set	-8.4987
▁given	-8.49884
As	-8.50232
▁formed	-8.50295
▁members	-8.50677
▁father	-8.50771
▁bas	-8.50844
▁east	-8.51131
▁p	-8.51315
▁left	-8.51819
▁club	-8.52118
▁southern	-8.52694
▁Pakistan	-8.52776
▁day	-8.52788
▁within	-8.52802
▁example	-8.52939
▁singer	-8.53198
▁much	-8.53374
▁Greek	-8.53682
▁play	-8.53988
▁2001	-8.54036
st	-8.54064
▁feature	-8.5486
h	-8.55019
man	-8.55032
▁Spanish	-8.55153
▁la	-8.55432
gan	-8.55485
▁J	-8.5556
▁sai	-8.55565
▁Ã	-8.55883
▁power	-8.55913
▁still	-8.56147
▁State	-8.56425
▁following	-8.5647
▁founded	-8.56572
▁video	-8.56824
held	-8.56988
▁modern	-8.57018
▁Union	-8.57573
▁India	-8.57681
▁center	-8.57804
2	-8.5804
▁La	-8.58136
▁help	-8.58137
▁21	-8.58295
▁countries	-8.58455
For	-8.59247
▁line	-8.5926
▁2003	-8.59526
▁re	-8.59535
▁five	-8.59603
▁K	-8.59723
▁public	-8.59728
▁=	-8.59996
▁European	-8.60135
▁California	-8.60192
She	-8.60249
▁live	-8.60323
▁land	-8.60791
▁order	-8.61009
▁age	-8.61156
▁Basse	-8.61312
▁refer	-8.61336
▁body	-8.61459
▁One	-8.61508
▁base	-8.61692
Normand	-8.61859
▁produced	-8.62051
▁There	-8.6235
▁23	-8.62439
▁another	-8.62724
▁if	-8.63327
▁original	-8.63538
▁22	-8.63564
▁movie	-8.63571
▁present	-8.63574
▁could	-8.63807
▁island	-8.64295
▁games	-8.64456
▁children	-8.64559
▁referr	-8.64649
▁Switzerland	-8.64954
▁company	-8.66109
um	-8.66226
▁26	-8.67207
▁career	-8.67244
▁took	-8.67663
▁2010	-8.67807
However	-8.67819
▁2002	-8.67823
▁move	-8.68439
▁old	-8.68752
▁what	-8.69085
▁means	-8.69124
▁District	-8.6917
▁James	-8.69294
▁station	-8.6956
When	-8.69945
▁commonly	-8.69966
▁times	-8.70191
▁list	-8.70362
▁International	-8.70379
▁great	-8.70389
▁Championship	-8.70535
▁footballer	-8.71026
▁even	-8.71098
▁27	-8.71155
▁28	-8.7217
▁School	-8.72529
▁1980	-8.72532
▁Canada	-8.72577
▁Great	-8.72602
At	-8.72632
▁border	-8.73203
▁final	-8.73243
▁person	-8.73275
▁V	-8.73646
▁head	-8.73688
▁developed	-8.74055
▁un	-8.74269
▁result	-8.74369
▁local	-8.7442
▁role	-8.74745
▁return	-8.74935
▁Other	-8.74997
▁support	-8.75264
▁non	-8.7528
▁c	-8.75453
▁allow	-8.75454
▁tropical	-8.75616
▁Party	-8.75663
▁#	-8.75788
▁similar	-8.75825
▁few	-8.75839
▁William	-8.75945
▁late	-8.76215
▁off	-8.7643
▁consist	-8.76681
▁character	-8.76919
went	-8.77499
▁top	-8.77594
▁1999	-8.77778
▁northwest	-8.78
▁river	-8.78345
▁canton	-8.78454
▁O	-8.78747
▁Royal	-8.78829
▁how	-8.79036
▁Park	-8.79165
▁just	-8.79174
▁China	-8.79347
▁George	-8.79387
▁1\/4	-8.79424
▁actor	-8.79464
▁29	-8.79794
▁Australian	-8.79796
is	-8.80011
▁type	-8.80054
▁match	-8.80129
▁playing	-8.80211
▁version	-8.80943
▁came	-8.80946
ism	-8.8118
▁N	-8.81196
▁Empire	-8.81326
There	-8.81343
▁Italy	-8.81906
▁point	-8.82003
▁together	-8.82102
▁total	-8.82209
western	-8.82348
▁follow	-8.8238
▁central	-8.82399
ry	-8.83139
▁international	-8.83224
out	-8.83295
▁down	-8.83357
▁Grand	-8.83514
â	-8.8366
▁Cup	-8.83748
▁storm	-8.84297
▁College	-8.84726
▁wrote	-8.8517
using	-8.85175
▁does	-8.85245
▁color	-8.85263
▁served	-8.85381
▁remain	-8.85712
▁per	-8.86026
▁1990	-8.86374
▁1970	-8.86453
▁young	-8.86594
▁way	-8.86802
▁war	-8.86949
▁political	-8.87004
ley	-8.871
▁mother	-8.87852
▁Pays	-8.87941
▁village	-8.87966
▁due	-8.88027
▁Church	-8.88036
▁six	-8.88105
▁direct	-8.88317
▁side	-8.88378
way	-8.88403
▁among	-8.88405
Å	-8.88412
▁reach	-8.8845
▁Football	-8.88456
▁W	-8.88622
ation	-8.88668
▁making	-8.88746
ton	-8.89055
▁meaning	-8.89132
▁Award	-8.89153
▁establish	-8.89336
▁air	-8.89406
▁San	-8.8966
▁Christian	-8.89668
▁Gironde	-8.89875
▁parts	-8.89886
▁Island	-8.89992
His	-8.90064
▁event	-8.90146
▁lead	-8.90149
▁works	-8.90243
▁days	-8.90458
▁originally	-8.90675
▁Charles	-8.90778
▁perform	-8.90823
-",	-8.90824
▁next	-8.90925
te	-8.91053
▁Scotland	-8.91118
▁take	-8.91172
▁Africa	-8.91186
▁Sea	-8.91292
▁House	-8.91504
▁human	-8.91696
▁led	-8.91914
▁full	-8.92391
▁right	-8.92439
Dur	-8.92514
▁host	-8.92583
▁though	-8.92891
▁hurricane	-8.92931
▁particular	-8.93187
▁Central	-8.93214
▁eastern	-8.93342
▁His	-8.9339
▁sea	-8.93768
▁without	-8.9389
▁Ireland	-8.93963
▁exist	-8.9429
▁Canadian	-8.94385
▁Minister	-8.94519
▁metal	-8.94552
▁Aqui	-8.94798
▁force	-8.94937
ous	-8.94998
▁Western	-8.95403
taine	-8.95467
▁All	-8.95477
having	-8.95561
▁defeat	-8.95567
▁included	-8.95694
▁includes	-8.95694
▁areas	-8.95744
▁various	-8.95762
▁again	-8.95884
▁An	-8.95939
▁law	-8.96103
▁Earth	-8.96554
▁every	-8.96821
▁miles	-8.96959
▁living	-8.97439
▁First	-8.97606
▁Council	-8.97637
▁close	-8.97856
▁Red	-8.98108
▁Indian	-8.9817
▁describe	-8.98245
▁III	-8.98755
▁L	-8.98757
▁Brazilian	-8.98758
▁month	-8.98821
▁western	-8.98841
▁seat	-8.98879
▁Latin	-8.99002
▁study	-8.99098
▁wife	-8.99253
ne	-8.99436
g	-8.99539
▁states	-8.99735
▁Henry	-8.99841
▁Paris	-8.99945
▁h	-9.00054
▁WWE	-9.00267
▁act	-9.00517
▁light	-9.01046
▁Florida	-9.0155
▁$	-9.01655
▁computer	-9.01918
▁100	-9.01989
▁white	-9.02041
▁1997	-9.02344
▁1998	-9.02381
▁Â	-9.02435
▁separate	-9.02995
▁Atlantic	-9.03172
▁control	-9.03493
▁BC	-9.03706
▁military	-9.03858
▁half	-9.04156
ce	-9.04556
▁either	-9.04594
▁Paul	-9.05022
ary	-9.0504
▁Russian	-9.0522
▁Asia	-9.05252
▁languages	-9.05448
▁unit	-9.05501
land	-9.05509
▁sold	-9.05639
Al	-9.0582
▁range	-9.0589
dos	-9.06034
▁size	-9.06242
▁free	-9.06432
▁Le	-9.06435
▁Loire	-9.06487
▁Chinese	-9.06611
▁add	-9.06857
▁UK	-9.06955
▁get	-9.06994
▁building	-9.07136
▁writer	-9.07205
▁1996	-9.07326
▁1994	-9.07563
▁story	-9.07569
▁natural	-9.07814
▁seen	-9.07877
▁daughter	-9.08387
▁award	-9.08403
D	-9.08414
▁ice	-9.08446
▁week	-9.08514
▁joined	-9.08848
▁calendar	-9.08899
▁black	-9.08961
▁leader	-9.09048
▁Black	-9.09164
▁less	-9.09279
▁food	-9.09386
▁Robert	-9.0981
E	-9.09885
▁rule	-9.10365
se	-9.10448
▁provide	-9.10501
3	-9.10732
▁energy	-9.10824
▁novel	-9.10838
▁changed	-9.1084
▁References	-9.10934
▁31	-9.1105
▁discovered	-9.11087
▁composer	-9.11372
hose	-9.11394
ian	-9.11428
▁books	-9.11688
▁pass	-9.11804
▁co	-9.1181
▁Scottish	-9.11815
▁Queen	-9.11954
▁Calva	-9.1207
▁David	-9.12076
▁History	-9.121
▁Dutch	-9.12271
▁wide	-9.12333
▁thought	-9.12423
▁Berlin	-9.12549
▁science	-9.12562
▁surface	-9.12624
▁author	-9.12632
▁No	-9.12908
c	-9.13016
▁1960	-9.13037
▁i	-9.13126
▁Catholic	-9.13186
gave	-9.13298
▁Music	-9.13331
est	-9.1358
▁strong	-9.13641
▁1995	-9.1367
▁debut	-9.13731
▁position	-9.1382
▁contain	-9.14183
▁highest	-9.14573
▁across	-9.14626
or	-9.14691
▁today	-9.14749
▁chemical	-9.14795
▁coast	-9.14979
▁Emperor	-9.15128
▁Hall	-9.15137
▁better	-9.15228
▁Day	-9.15656
▁link	-9.15708
▁1992	-9.15807
▁development	-9.15926
▁service	-9.16051
▁General	-9.16132
▁southwest	-9.16597
▁1993	-9.16656
▁program	-9.16676
▁successful	-9.16687
▁women	-9.16823
▁continue	-9.16924
▁Province	-9.16935
▁independent	-9.16948
x	-9.17061
▁Battle	-9.1717
▁Louis	-9.17176
▁actress	-9.17309
▁information	-9.17402
▁level	-9.1755
▁Spain	-9.17644
▁cause	-9.17697
▁1979	-9.17724
Ä	-9.17744
▁Northern	-9.18132
▁sign	-9.18181
▁Lake	-9.18199
▁site	-9.18244
▁cities	-9.1837
▁almost	-9.18538
▁Soviet	-9.18715
▁car	-9.18752
k	-9.18791
▁killed	-9.19004
▁president	-9.19031
▁art	-9.1906
▁good	-9.19231
ally	-9.19419
▁especially	-9.19432
▁US	-9.19551
▁1974	-9.19576
▁open	-9.1961
▁man	-9.19611
▁start	-9.19624
▁plant	-9.19654
▁politician	-9.20345
▁brother	-9.20449
▁receiv	-9.20602
to	-9.20651
▁hit	-9.20675
▁1981	-9.20755
▁release	-9.20814
ia	-9.21172
▁go	-9.21339
▁should	-9.21559
▁change	-9.21821
▁theory	-9.2183
▁movement	-9.21889
▁house	-9.21967
▁approximate	-9.22121
▁plants	-9.22253
▁songs	-9.22315
▁mostly	-9.22428
▁Iowa	-9.22468
▁seven	-9.22489
▁you	-9.22496
▁race	-9.22663
▁Wales	-9.22668
▁special	-9.22842
▁northwestern	-9.22874
▁God	-9.2295
▁represent	-9.23107
taken	-9.23229
▁Disney	-9.23247
▁cover	-9.23692
▁types	-9.2371
▁ancient	-9.2374
▁men	-9.23823
▁opera	-9.23949
▁influence	-9.23991
▁typical	-9.24101
▁studio	-9.24135
▁must	-9.24181
▁uses	-9.24196
▁fourth	-9.24201
▁Club	-9.24473
▁above	-9.24519
▁university	-9.24523
▁process	-9.24576
▁complete	-9.24793
side	-9.24876
▁"''	-9.24972
▁marri	-9.24975
▁Al	-9.25076
▁related	-9.25152
u	-9.25173
time	-9.25212
▁NHL	-9.25287
▁teams	-9.25297
▁leave	-9.25442
▁Britain	-9.25489
▁attack	-9.25681
▁red	-9.25744
▁r	-9.25768
▁director	-9.25783
▁party	-9.25806
▁league	-9.25884
▁date	-9.25961
▁Prince	-9.26011
▁never	-9.26028
▁These	-9.26081
▁systems	-9.263
▁simpl	-9.26376
▁1982	-9.26414
▁far	-9.26474
▁Super	-9.26502
▁Prime	-9.26559
▁Mexico	-9.26823
▁low	-9.27007
▁opened	-9.2719
▁network	-9.27215
Some	-9.27237
▁stage	-9.27347
▁style	-9.27352
▁Hockey	-9.27433
son	-9.2761
▁run	-9.27613
▁software	-9.27621
▁oldest	-9.27742
▁''",	-9.27788
▁post	-9.2779
While	-9.27957
▁space	-9.28041
▁Wrestling	-9.28064
▁Richard	-9.28184
▁himself	-9.28339
▁female	-9.28445
elected	-9.28477
▁Association	-9.28609
▁church	-9.28761
▁lived	-9.28853
▁enter	-9.28868
▁X	-9.28988
▁itself	-9.29007
▁Bay	-9.29016
▁1984	-9.2926
▁animals	-9.29404
▁page	-9.29408
▁1989	-9.2941
▁least	-9.29608
▁Parliament	-9.29787
like	-9.29918
▁Rock	-9.30014
▁Army	-9.30233
▁field	-9.30255
▁comes	-9.30468
▁office	-9.30483
▁forces	-9.30697
▁once	-9.307
▁1986	-9.30775
▁Duke	-9.30919
▁genus	-9.31087
▁guitar	-9.31154
▁Ocean	-9.31164
▁High	-9.3118
▁production	-9.31223
▁traditional	-9.31232
▁You	-9.31402
▁contains	-9.31465
▁starting	-9.31686
▁Los	-9.31706
▁flow	-9.31921
la	-9.32116
▁design	-9.32159
▁Wikipedia	-9.322
▁producer	-9.32317
▁1973	-9.32743
▁Peter	-9.32804
▁1991	-9.32821
▁child	-9.33024
According	-9.33095
▁retired	-9.33122
▁1975	-9.33599
▁Best	-9.33984
▁On	-9.343
▁Washington	-9.34507
▁Some	-9.34566
▁Pacific	-9.346
▁words	-9.34793
shire	-9.34795
▁Virginia	-9.34828
▁groups	-9.34862
▁studie	-9.35103
▁square	-9.35148
▁Formula	-9.35267
▁source	-9.35305
▁key	-9.35316
With	-9.35341
▁working	-9.35499
▁believe	-9.35646
▁others	-9.35658
▁Division	-9.35971
▁length	-9.36042
▁temperature	-9.36049
▁Man	-9.36156
▁available	-9.36205
▁lost	-9.3636
▁Year	-9.3651
▁entire	-9.36521
▁Entertainment	-9.36539
▁1983	-9.36666
▁Eastern	-9.36669
▁data	-9.36704
▁organization	-9.36821
These	-9.36851
▁White	-9.36973
▁radio	-9.37013
▁forms	-9.37288
▁want	-9.37317
▁Academy	-9.37318
▁kind	-9.37408
▁Thomas	-9.37446
▁events	-9.37452
ness	-9.37491
▁finish	-9.37506
▁come	-9.37555
▁f	-9.37615
▁orbit	-9.37648
▁1977	-9.37844
▁players	-9.37938
▁k	-9.38051
▁king	-9.38108
▁cell	-9.38199
▁caus	-9.38233
▁Russia	-9.38309
▁parent	-9.38346
▁mid	-9.38446
▁leading	-9.38579
ers	-9.3867
▁1976	-9.38761
▁Center	-9.38822
▁Mary	-9.38914
▁1987	-9.39021
▁Records	-9.39026
▁business	-9.39093
▁put	-9.39205
▁Michael	-9.39328
▁look	-9.39336
▁larger	-9.39454
▁distance	-9.3946
▁connect	-9.39489
▁find	-9.39535
▁mov	-9.39701
▁bega	-9.39793
▁travel	-9.3984
▁instead	-9.3989
▁outside	-9.40028
▁Games	-9.40034
▁1967	-9.40209
▁minor	-9.40211
▁figure	-9.40438
▁claim	-9.40692
▁designed	-9.40767
▁produce	-9.40823
▁1972	-9.40865
M	-9.40928
▁success	-9.40984
▁announced	-9.41224
▁Chicago	-9.41279
▁Company	-9.41346
Since	-9.41393
▁average	-9.41444
▁smaller	-9.4152
▁Prize	-9.41554
▁research	-9.41645
▁Angeles	-9.4168
▁win	-9.4169
▁Texas	-9.41716
▁turn	-9.41788
▁below	-9.4179
▁nation	-9.41821
▁Islands	-9.41846
▁musical	-9.41988
▁railway	-9.42074
▁brand	-9.42084
▁college	-9.42171
▁characters	-9.42361
▁introduced	-9.42432
▁administrative	-9.42692
▁names	-9.42869
▁artist	-9.42871
▁certain	-9.42901
▁fall	-9.43034
▁market	-9.43058
▁Most	-9.43134
▁Old	-9.432
▁shows	-9.43224
▁1971	-9.43343
ados	-9.43412
▁Nintendo	-9.43444
▁voice	-9.43705
ever	-9.43719
▁Calv	-9.43794
▁hour	-9.43838
▁Victoria	-9.43893
▁50	-9.43926
▁community	-9.43954
▁Line	-9.43968
▁track	-9.44035
▁1985	-9.44168
▁TV	-9.44296
▁makes	-9.44414
ville	-9.44515
▁1988	-9.44584
▁material	-9.44638
▁trade	-9.44686
▁manager	-9.44803
▁division	-9.44872
▁units	-9.4497
▁conductor	-9.45087
▁star	-9.45111
▁Sun	-9.45412
▁websites	-9.45416
▁pages	-9.45464
▁numbers	-9.45516
▁Green	-9.45522
day	-9.45542
▁according	-9.45717
▁ten	-9.45757
as	-9.45772
▁1978	-9.45787
▁People	-9.45818
▁hockey	-9.45876
▁Street	-9.45968
▁beginning	-9.45973
▁addition	-9.46017
na	-9.46043
ial	-9.46066
▁African	-9.46103
▁orchestra	-9.46129
▁model	-9.46295
▁Islam	-9.46303
▁1969	-9.46351
▁hold	-9.46385
▁Southern	-9.4646
▁Second	-9.46472
▁hard	-9.4654
▁fight	-9.46679
▁Edward	-9.46869
▁Austria	-9.46876
▁fire	-9.4698
▁Air	-9.47027
▁native	-9.47301
▁1950	-9.4732
▁create	-9.47386
▁blood	-9.47405
▁class	-9.47408
▁Middle	-9.47459
▁episode	-9.47745
▁front	-9.47834
▁De	-9.47923
▁widely	-9.47969
▁eight	-9.48071
▁Hurricane	-9.48155
▁social	-9.48325
▁1945	-9.48333
rather	-9.48354
▁little	-9.48382
▁writing	-9.48427
▁BBC	-9.48534
ose	-9.48851
▁specific	-9.4888
▁receive	-9.49109
re	-9.49148
▁Star	-9.49355
ach	-9.49362
▁grow	-9.49572
▁Nobel	-9.49731
less	-9.49939
▁von	-9.49999
ment	-9.50109
▁replac	-9.50109
4	-9.5014
▁actual	-9.50252
▁male	-9.50308
▁1968	-9.50493
▁Life	-9.50568
▁Brazil	-9.50731
▁Belgian	-9.50736
▁ground	-9.50756
▁interest	-9.50779
▁mass	-9.50803
▁Lord	-9.51133
▁able	-9.51175
▁lower	-9.51338
▁performance	-9.51396
▁sent	-9.51495
▁hand	-9.51495
▁Irish	-9.51603
▁Mountain	-9.51774
▁census	-9.51782
▁starr	-9.51869
▁districts	-9.51893
▁cells	-9.52002
▁Secretary	-9.52106
▁Windows	-9.52111
▁culture	-9.52437
▁structure	-9.52446
▁got	-9.52462
▁islands	-9.52484
▁th	-9.52501
divided	-9.52689
▁night	-9.52721
▁services	-9.52741
▁symbol	-9.52783
▁Netherlands	-9.52843
▁article	-9.52898
▁films	-9.53204
▁occur	-9.53487
▁championship	-9.53508
▁For	-9.53542
▁reason	-9.53543
▁El	-9.53642
▁text	-9.53748
▁stadium	-9.53827
▁Game	-9.53957
▁ever	-9.5403
▁g	-9.54095
▁relative	-9.54103
▁40	-9.54114
▁guitarist	-9.5422
▁sports	-9.54397
signed	-9.54506
▁Martin	-9.54537
▁annual	-9.54622
▁tour	-9.54634
▁Valley	-9.54805
▁action	-9.54894
An	-9.54918
▁amount	-9.55167
▁real	-9.55168
▁increase	-9.55206
▁Romania	-9.55302
▁visit	-9.5533
▁section	-9.55333
From	-9.55343
▁Zealand	-9.55354
▁project	-9.55472
▁students	-9.55511
▁pressure	-9.55604
▁musician	-9.55715
ized	-9.55866
If	-9.56065
▁standard	-9.56168
▁magazine	-9.56195
▁blue	-9.56343
▁engine	-9.56481
▁further	-9.56546
w	-9.56598
▁gain	-9.56692
▁articles	-9.56927
▁takes	-9.57253
▁Sir	-9.57258
Other	-9.57277
▁Mario	-9.57364
▁round	-9.57412
▁big	-9.57449
up	-9.57553
▁initial	-9.5781
▁sound	-9.57815
▁pop	-9.57938
ecause	-9.58107
▁case	-9.58138
▁gold	-9.58373
▁sister	-9.58391
possible	-9.58467
year	-9.58768
▁charge	-9.58894
com	-9.58911
R	-9.5893
▁peak	-9.59003
▁write	-9.59335
ta	-9.59344
▁Oklahoma	-9.59389
▁label	-9.59451
▁rest	-9.59459
▁election	-9.59589
▁army	-9.59606
▁Government	-9.59609
▁1947	-9.59611
owever	-9.59778
▁block	-9.59837
ve	-9.59957
▁Ard	-9.59991
ine	-9.6002
T	-9.60192
▁animal	-9.60238
▁sub	-9.60271
▁train	-9.60387
▁Road	-9.60495
▁object	-9.60558
▁...	-9.60624
▁things	-9.60701
▁Jupiter	-9.60722
▁tree	-9.60943
known	-9.60984
▁poet	-9.61001
▁terms	-9.61104
▁Institute	-9.61476
▁acid	-9.6172
▁themselves	-9.61722
▁active	-9.61755
▁Premier	-9.6185
▁gas	-9.61946
▁mountain	-9.62055
▁met	-9.62076
ner	-9.62175
▁eventual	-9.62245
▁Jr	-9.62564
▁paper	-9.62755
▁religious	-9.62764
▁letter	-9.62775
▁significant	-9.62862
▁damage	-9.62867
ist	-9.62978
▁Act	-9.63058
▁Illinois	-9.63112
▁Young	-9.6331
▁My	-9.63347
▁higher	-9.63352
▁money	-9.63369
▁Austrian	-9.63377
▁rank	-9.6372
▁port	-9.63744
▁middle	-9.63895
▁status	-9.63974
▁1963	-9.63986
▁attempt	-9.64001
▁lot	-9.64018
▁road	-9.64148
▁display	-9.6418
▁woman	-9.6422
▁lies	-9.6435
▁points	-9.64358
▁territory	-9.64394
▁give	-9.64758
▁subject	-9.64906
age	-9.64922
▁System	-9.64946
▁private	-9.6504
▁heavy	-9.6513
▁ring	-9.65169
▁heat	-9.6524
▁Time	-9.65347
▁worldwide	-9.65449
▁1964	-9.6548
▁regard	-9.65578
sur	-9.65598
▁Olympic	-9.65601
▁police	-9.65711
▁individual	-9.6572
▁break	-9.65904
▁Korea	-9.65989
▁website	-9.65992
▁describ	-9.66039
▁adopt	-9.66073
always	-9.66216
▁concert	-9.6626
rought	-9.66267
▁Poland	-9.66267
▁serve	-9.66377
▁view	-9.66413
▁summer	-9.66447
Most	-9.66477
▁multiple	-9.66479
▁Department	-9.66493
▁pay	-9.66649
▁Stan	-9.6666
▁Joseph	-9.66867
et	-9.67041
▁ask	-9.67127
▁USA	-9.67149
▁Prix	-9.67159
▁soon	-9.6719
▁Major	-9.6727
▁Manchester	-9.6746
▁code	-9.67533
One	-9.67658
▁1930	-9.67735
▁Governor	-9.67759
ra	-9.67821
▁feet	-9.67835
▁Jesus	-9.6786
▁situated	-9.67956
▁physical	-9.68033
▁thus	-9.68077
by	-9.6821
▁Its	-9.68337
▁elements	-9.6834
rd	-9.68366
▁Carolina	-9.68373
el	-9.68472
▁coach	-9.68473
▁Orchestra	-9.68664
▁fish	-9.68713
▁green	-9.68771
▁newspaper	-9.68901
▁Lady	-9.68991
▁1965	-9.69126
▁union	-9.69286
▁Pope	-9.693
▁mean	-9.69331
▁require	-9.69397
▁disease	-9.69432
z	-9.69511
▁Oxford	-9.69637
▁primari	-9.69687
▁nuclear	-9.69785
▁featur	-9.69849
▁principal	-9.69862
▁fifth	-9.6989
▁Awards	-9.69935
▁changes	-9.69993
▁Group	-9.70041
▁Santa	-9.70153
▁competition	-9.70404
▁operating	-9.70445
▁lake	-9.70463
▁Federal	-9.70483
▁1949	-9.70583
▁fiction	-9.70654
▁Hill	-9.70826
▁ball	-9.70994
▁alternative	-9.71095
▁primar	-9.71225
▁accept	-9.71333
▁battle	-9.71391
Many	-9.71473
au	-9.7151
▁Book	-9.71533
▁Korean	-9.71657
▁decided	-9.71736
▁birth	-9.71745
▁Rome	-9.7177
▁wrestling	-9.71798
▁Many	-9.71823
▁speed	-9.7186
▁speak	-9.71886
▁lines	-9.72064
▁toward	-9.72088
▁inhabitants	-9.72133
▁Love	-9.72138
▁Dr	-9.72152
▁Court	-9.72161
▁Airport	-9.72216
▁albums	-9.72228
▁flag	-9.72248
▁Me	-9.7226
▁oil	-9.72299
▁succeed	-9.7235
▁tri	-9.72423
▁honor	-9.72494
▁stars	-9.72702
▁Swedish	-9.7293
▁vote	-9.72968
▁Harry	-9.72999
▁done	-9.73008
▁At	-9.7302
▁Be	-9.73035
▁Tropical	-9.73164
▁Egypt	-9.73335
▁scale	-9.73348
▁Saturn	-9.73392
ld	-9.7341
▁spoken	-9.73415
▁After	-9.7344
▁whom	-9.73455
▁regular	-9.73457
▁1962	-9.73458
▁recording	-9.73473
▁access	-9.73495
▁1961	-9.7365
ought	-9.7377
▁IV	-9.73996
▁collection	-9.74068
▁edition	-9.74174
▁talk	-9.74212
▁longer	-9.74245
▁Jewish	-9.74262
▁branch	-9.74299
▁buildings	-9.74514
I	-9.74524
▁older	-9.74542
▁1966	-9.74568
ive	-9.74834
▁reported	-9.74873
wood	-9.74891
▁1940	-9.74896
▁rights	-9.74898
▁attend	-9.74935
▁earlier	-9.75054
▁1948	-9.75238
▁love	-9.75262
▁1920	-9.75523
▁develop	-9.75564
▁ocean	-9.75569
▁Revolution	-9.7567
▁electric	-9.75735
▁behind	-9.75781
▁remains	-9.75818
▁tell	-9.7586
▁schools	-9.759
▁historical	-9.75917
▁moon	-9.75921
▁winning	-9.7597
▁variety	-9.76002
▁Armenian	-9.76049
▁complex	-9.7607
▁Boy	-9.76085
upon	-9.76094
▁join	-9.76103
▁directly	-9.7619
▁commercial	-9.762
▁Co	-9.76367
▁completed	-9.76428
▁share	-9.76431
▁friend	-9.76614
P	-9.7662
▁inside	-9.76641
▁whole	-9.7675
▁offer	-9.76754
Its	-9.76768
▁winds	-9.77075
▁Elizabeth	-9.77214
▁officer	-9.77222
▁previous	-9.77358
▁towns	-9.77418
▁Free	-9.77452
▁nine	-9.77497
▁copies	-9.77543
By	-9.77555
▁wind	-9.7763
▁o	-9.7804
▁probabl	-9.78067
▁element	-9.78142
▁degree	-9.78175
▁Big	-9.78185
▁Scott	-9.78209
▁court	-9.78296
▁report	-9.78339
▁Nations	-9.78388
field	-9.78445
ability	-9.78636
▁1952	-9.78636
▁recognized	-9.7874
efore	-9.78871
▁measure	-9.78877
▁1946	-9.7891
▁wrestler	-9.79038
▁nearly	-9.79045
▁Series	-9.79098
▁quickly	-9.79112
▁Lee	-9.79135
composed	-9.79293
▁saw	-9.79381
ssociated	-9.79426
▁industry	-9.79476
▁practice	-9.79598
▁piano	-9.79635
5	-9.79731
the	-9.79733
ford	-9.79793
▁humans	-9.79801
▁media	-9.79883
▁60	-9.79915
ther	-9.80058
▁user	-9.8017
▁l	-9.8022
▁operate	-9.80309
▁appointed	-9.80402
▁image	-9.80433
Alpes	-9.80524
▁Ain	-9.80541
▁200	-9.80542
▁bass	-9.80559
▁1939	-9.80596
▁dead	-9.80691
▁future	-9.80694
▁launch	-9.80706
▁fictional	-9.80747
▁Storm	-9.80884
▁Golden	-9.80942
▁too	-9.81083
▁Port	-9.81109
▁plan	-9.81174
▁equal	-9.81184
▁past	-9.81292
▁direction	-9.81292
▁health	-9.81316
▁biggest	-9.81319
▁nature	-9.81331
▁education	-9.81421
▁belong	-9.8148
▁shape	-9.81631
▁idea	-9.81655
▁protect	-9.8172
▁recent	-9.81753
▁park	-9.81762
ship	-9.81942
▁previously	-9.81951
▁Town	-9.82446
To	-9.82566
▁we	-9.82749
most	-9.82802
▁simple	-9.82922
born	-9.83024
▁taking	-9.83027
▁founder	-9.83155
▁valley	-9.83164
▁machine	-9.83191
▁Society	-9.83192
▁running	-9.83196
▁southeastern	-9.83329
at	-9.83376
▁See	-9.8343
▁racing	-9.8351
▁nickname	-9.83528
▁Force	-9.8366
▁except	-9.83745
▁Polish	-9.8382
▁true	-9.83859
▁Land	-9.83954
▁stay	-9.8396
▁becom	-9.84067
▁subsequent	-9.84102
▁Internet	-9.8413
▁heart	-9.84143
▁Democratic	-9.8415
▁extreme	-9.84421
▁Georgia	-9.84466
▁pre	-9.84506
▁planet	-9.8453
▁council	-9.84577
▁Stone	-9.84602
ical	-9.8464
▁problems	-9.84662
▁economic	-9.84796
▁places	-9.85025
▁function	-9.85139
▁1959	-9.85338
▁stop	-9.85374
▁Sweden	-9.85396
▁effect	-9.85397
head	-9.85404
▁Railway	-9.85453
ar	-9.85462
▁personal	-9.85691
▁location	-9.85748
▁learn	-9.85825
▁Persian	-9.86131
▁To	-9.86269
▁keep	-9.86298
▁Cross	-9.86364
▁appearance	-9.86414
▁Tom	-9.86492
▁Holy	-9.86523
▁Maria	-9.86607
▁destroyed	-9.86621
▁ago	-9.86667
▁Raw	-9.86705
▁double	-9.86709
town	-9.86746
▁try	-9.86823
▁multi	-9.86878
▁Olympics	-9.87119
▁association	-9.8731
▁content	-9.87331
▁fruit	-9.87335
▁singles	-9.87354
▁Z	-9.87375
▁Her	-9.87593
▁Congress	-9.87629
&	-9.8771
▁value	-9.87849
▁involved	-9.88058
▁Kentucky	-9.88128
▁Gulf	-9.88145
▁chart	-9.88162
▁call	-9.88167
▁replace	-9.88177
▁seasons	-9.88414
▁Law	-9.88512
▁Champion	-9.88555
▁anti	-9.88664
▁Summer	-9.88773
▁board	-9.88791
▁Fox	-9.88882
▁painter	-9.88885
ium	-9.88916
▁Vienna	-9.88958
▁Live	-9.89023
▁vocals	-9.89114
▁difficult	-9.8912
▁diameter	-9.89129
▁reign	-9.89132
▁Ohio	-9.89144
per	-9.89177
▁hot	-9.89193
▁Mount	-9.89253
▁Census	-9.89297
▁When	-9.89362
▁1957	-9.89365
▁maintain	-9.89376
▁Mark	-9.89379
▁Radio	-9.89507
▁dark	-9.8952
▁device	-9.89583
▁Alexander	-9.89652
▁read	-9.89735
▁1955	-9.89772
▁1954	-9.89793
▁Team	-9.89923
▁era	-9.89936
du	-9.90031
nd	-9.90093
▁Bridge	-9.90153
▁notable	-9.90252
▁upper	-9.90335
▁easi	-9.90558
▁AD	-9.90569
▁concept	-9.90581
▁recently	-9.90647
▁1944	-9.90675
▁comedy	-9.90686
▁Ben	-9.90759
▁continent	-9.90811
▁already	-9.90823
▁relationship	-9.90965
▁weather	-9.91185
▁Museum	-9.91316
▁face	-9.91327
▁teacher	-9.91366
▁via	-9.91383
da	-9.91414
▁Portuguese	-9.91494
▁die	-9.91642
▁champion	-9.91655
▁lives	-9.91657
▁Ford	-9.91691
▁mythology	-9.91818
▁Show	-9.91952
▁Tour	-9.91975
▁might	-9.91996
▁cyclone	-9.92002
▁1953	-9.92076
▁ship	-9.9211
6	-9.92302
▁channel	-9.92356
▁moving	-9.92408
RS	-9.92429
▁Khan	-9.92455
ro	-9.92475
▁Nazi	-9.9249
▁cultural	-9.92536
▁reference	-9.92563
ham	-9.92651
▁Festival	-9.92676
▁method	-9.92745
▁Area	-9.92774
American	-9.92956
▁driver	-9.92976
▁greatest	-9.93049
▁architecture	-9.93118
▁here	-9.93168
▁hundred	-9.93188
▁Melbourne	-9.93258
central	-9.93322
▁begins	-9.93351
▁Smith	-9.93384
dependence	-9.93428
he	-9.93482
▁Pennsylvania	-9.93535
▁Ontario	-9.93544
▁kilometre	-9.93552
▁says	-9.93589
one	-9.93683
▁Bill	-9.9395
▁Beach	-9.9407
▁counties	-9.94074
▁rough	-9.94076
▁construction	-9.94078
▁Cape	-9.94104
▁1958	-9.94106
▁runs	-9.94195
▁bank	-9.94254
water	-9.94352
▁Two	-9.94399
line	-9.94419
▁Muslim	-9.94514
▁animat	-9.94542
▁Arthur	-9.94545
▁beat	-9.94584
▁civil	-9.94618
▁need	-9.94632
old	-9.94704
Her	-9.94804
▁husband	-9.94932
▁classical	-9.94993
▁meeting	-9.94996
▁distribution	-9.95051
▁scientist	-9.95106
ey	-9.95389
▁Region	-9.95461
▁salt	-9.95495
N	-9.95505
refore	-9.9551
▁urban	-9.956
▁Columbia	-9.95608
▁gives	-9.95629
▁sequel	-9.95638
▁broadcast	-9.95649
▁mention	-9.95663
▁1942	-9.95673
▁Mayenn	-9.95769
▁Do	-9.95893
▁etc	-9.96024
▁asteroid	-9.96116
▁split	-9.96181
▁Fire	-9.96189
▁Bush	-9.96397
▁contract	-9.96397
John	-9.96474
▁Night	-9.96516
▁highly	-9.9652
▁theater	-9.96711
▁baseball	-9.96713
▁Class	-9.9672
▁yellow	-9.96731
▁Winter	-9.96897
▁self	-9.96908
▁earliest	-9.97064
▁Cathedral	-9.97066
of	-9.97186
▁Little	-9.97289
▁continu	-9.97301
▁digital	-9.97307
▁1918	-9.97344
▁cancer	-9.97433
▁scene	-9.97463
▁Chris	-9.97477
▁defin	-9.97607
▁Michigan	-9.9763
▁Provence	-9.97644
▁products	-9.9791
▁1956	-9.97973
▁organ	-9.98091
▁Brown	-9.9815
▁Commonwealth	-9.98156
▁northeast	-9.98173
▁question	-9.98332
▁Symphony	-9.98347
▁select	-9.98404
▁département	-9.98509
▁declared	-9.98554
▁credit	-9.98719
▁cases	-9.98721
8	-9.98892
▁Dynasty	-9.99062
▁spen	-9.99093
men	-9.99156
▁stations	-9.99196
▁campaign	-9.99218
▁deal	-9.99284
▁centre	-9.99294
▁Microsoft	-9.9931
▁1900	-9.99371
▁numero	-9.99391
▁emperor	-9.99446
▁discovery	-9.99474
▁Linux	-9.99556
▁winter	-9.9963
▁users	-9.99673
▁responsib	-9.99717
▁Stadium	-9.99803
▁Boston	-9.99825
▁chief	-9.99926
ate	-9.99963
cy	-10.0018
▁Sydney	-10.0019
▁medical	-10.002
▁cross	-10.0029
▁fact	-10.0029
▁your	-10.003
▁test	-10.003
▁drive	-10.0034
▁basic	-10.0047
▁longest	-10.0063
▁stone	-10.0066
▁poem	-10.0072
▁Christ	-10.0073
▁deep	-10.0085
no	-10.0085
▁growth	-10.0088
▁literature	-10.0091
▁Family	-10.0097
▁cold	-10.0098
▁eye	-10.0108
▁billion	-10.0109
▁nearby	-10.0114
▁controll	-10.0121
▁movies	-10.0122
▁Massachusetts	-10.0129
▁dance	-10.014
▁us	-10.0151
▁birds	-10.0153
▁80	-10.0167
▁Van	-10.0169
▁going	-10.0172
f	-10.0199
▁twenty	-10.0203
▁roles	-10.0214
▁particle	-10.0215
ch	-10.0217
▁Iran	-10.0218
▁depression	-10.0223
etropolitan	-10.0224
▁mammal	-10.0249
▁spread	-10.0257
▁Ma	-10.026
▁By	-10.026
▁concern	-10.026
▁carrie	-10.0272
▁suggest	-10.0289
▁Press	-10.0289
▁Civil	-10.0292
▁versions	-10.0301
▁Czech	-10.0303
▁focus	-10.0306
▁del	-10.0306
am	-10.031
▁depend	-10.0311
▁winner	-10.0311
▁our	-10.0313
▁thousand	-10.0319
▁trees	-10.033
▁scientific	-10.0332
▁tournament	-10.0337
▁Rhine	-10.0338
▁rules	-10.0339
▁solo	-10.0349
▁product	-10.0353
▁construct	-10.0358
▁Punjab	-10.0359
▁Bank	-10.0366
▁spring	-10.0394
▁Bible	-10.0395
▁victor	-10.0397
▁invent	-10.0403
▁account	-10.0404
me	-10.0404
▁volume	-10.0408
▁flower	-10.0409
▁centuries	-10.0413
▁conducted	-10.0414
▁DNA	-10.0418
▁Art	-10.0427
▁sense	-10.0431
▁Jersey	-10.0434
▁Belgium	-10.0435
▁1941	-10.045
▁platform	-10.0452
▁piece	-10.0456
▁Early	-10.0463
▁legal	-10.0467
▁slight	-10.0473
▁borough	-10.0473
▁friends	-10.0473
▁troops	-10.0483
▁cost	-10.0492
▁circuit	-10.0493
▁earn	-10.0495
▁te	-10.0496
▁opening	-10.0501
▁bring	-10.0503
▁Francisco	-10.0505
RCB	-10.0517
▁derive	-10.0518
▁Blue	-10.052
▁student	-10.0523
▁cathedral	-10.053
▁airport	-10.053
bas	-10.0532
▁Mississippi	-10.0533
▁say	-10.0537
▁1933	-10.0549
▁1936	-10.0549
▁expand	-10.055
▁Jackson	-10.0559
Their	-10.0561
▁origin	-10.0563
▁sixth	-10.0563
▁compound	-10.0564
▁90	-10.0564
Azur	-10.0569
▁fail	-10.0575
▁Coast	-10.0576
▁Four	-10.0579
▁settlement	-10.0585
que	-10.0586
▁mouth	-10.0591
ance	-10.0593
▁grant	-10.0597
▁marriage	-10.063
▁eat	-10.0634
▁1951	-10.0635
▁prevent	-10.0648
▁Andrew	-10.0659
▁minister	-10.0666
▁table	-10.0669
▁pronounced	-10.0672
view	-10.0673
▁cm	-10.0675
▁print	-10.0696
▁Arts	-10.0703
▁marrie	-10.0703
▁Alaska	-10.0708
arthe	-10.0709
▁compani	-10.0718
▁prime	-10.072
▁objects	-10.0721
▁Indiana	-10.0724
▁evidence	-10.0727
▁renam	-10.0728
▁powerful	-10.0729
▁instrument	-10.0737
▁sources	-10.0742
▁covered	-10.0742
▁overall	-10.075
▁surrounding	-10.075
▁god	-10.0751
▁flood	-10.0768
wise	-10.0771
▁Albert	-10.0801
▁sport	-10.0803
berg	-10.0819
▁course	-10.0819
▁tall	-10.0823
where	-10.0823
▁che	-10.0826
▁immediate	-10.0827
▁climate	-10.083
▁et	-10.083
kept	-10.0831
▁goal	-10.0842
▁pair	-10.087
▁Alabama	-10.087
▁murder	-10.0881
▁limited	-10.0888
giving	-10.0889
▁sex	-10.089
▁Treaty	-10.0893
▁adult	-10.0894
▁Earl	-10.0898
▁camp	-10.0902
▁mon	-10.0904
▁Long	-10.0905
tended	-10.0908
▁NFL	-10.0911
▁programs	-10.0916
▁500	-10.0919
▁conditions	-10.092
▁Cambridge	-10.0932
▁ways	-10.0934
▁serving	-10.094
▁clear	-10.094
▁southeast	-10.0945
▁Lincoln	-10.0955
▁philosopher	-10.0969
▁Count	-10.0974
▁federal	-10.0975
▁colors	-10.0976
▁45	-10.0984
▁translation	-10.0994
▁rain	-10.0999
▁review	-10.1017
▁regions	-10.1018
▁Julian	-10.1019
▁flat	-10.102
▁Kashmir	-10.1025
▁soccer	-10.103
é	-10.1031
▁Anne	-10.1032
▁Swiss	-10.1035
▁institution	-10.104
▁creation	-10.1046
▁Channel	-10.1051
▁mph	-10.1052
▁Inc	-10.1067
▁industrial	-10.1077
▁Mac	-10.1092
▁Orthodox	-10.1113
▁bands	-10.1118
▁electronic	-10.1126
▁composition	-10.1133
▁normally	-10.1145
▁engineering	-10.1153
▁wild	-10.1154
▁Mr	-10.1156
▁lack	-10.1156
▁normal	-10.1166
▁materials	-10.1169
▁Science	-10.117
▁Walt	-10.1172
▁Kong	-10.1174
idae	-10.1176
▁Denmark	-10.1176
▁height	-10.118
▁Jean	-10.1181
▁Service	-10.1185
▁formula	-10.1186
▁farm	-10.1188
▁secret	-10.1195
▁ran	-10.12
▁royal	-10.1217
▁dynasty	-10.1217
▁instruments	-10.124
▁150	-10.1242
ese	-10.1246
▁kill	-10.1246
▁problem	-10.1247
▁Toronto	-10.1261
F	-10.1263
▁bar	-10.1264
▁purpose	-10.1265
▁detail	-10.1272
▁Frank	-10.1275
▁1943	-10.1276
▁Greece	-10.1279
▁Conference	-10.1281
▁rate	-10.1281
▁Peace	-10.1284
▁basketball	-10.13
▁speech	-10.13
▁Turkey	-10.1301
▁records	-10.1302
▁think	-10.1303
nough	-10.1306
▁room	-10.1309
▁activity	-10.1324
▁policy	-10.1328
▁professor	-10.1341
▁x	-10.1342
▁artists	-10.1345
▁cents	-10.1354
▁70	-10.1356
▁1938	-10.1357
▁rivers	-10.1359
▁wear	-10.1362
▁Order	-10.137
▁Castle	-10.1373
▁Who	-10.1378
▁links	-10.1379
▁Aube	-10.1388
▁1937	-10.1389
H	-10.1395
▁Fame	-10.1401
▁1929	-10.1404
▁mathematics	-10.1407
▁Chief	-10.141
▁Israel	-10.1421
▁sun	-10.1426
▁Protestant	-10.1429
▁density	-10.1432
▁mi	-10.1435
▁distinct	-10.1446
▁instruction	-10.145
▁We	-10.1453
▁rich	-10.1454
▁web	-10.1455
▁plann	-10.1464
stories	-10.1465
▁cook	-10.1467
▁prominent	-10.1472
▁Turkish	-10.1478
leaving	-10.1481
▁environment	-10.1485
▁35	-10.1495
▁Saxony	-10.15
▁remov	-10.1503
▁So	-10.1504
▁needed	-10.1508
History	-10.1514
▁chosen	-10.1519
▁stand	-10.1529
▁challenge	-10.1529
▁closely	-10.1533
▁Baseball	-10.1537
▁applied	-10.1542
▁warm	-10.1549
▁Corporation	-10.1556
▁philosophy	-10.1556
▁reveal	-10.1557
▁brief	-10.1557
▁something	-10.1557
▁Ancient	-10.1562
▁bridge	-10.1576
▁Singapore	-10.1577
▁Doctor	-10.1579
▁job	-10.1585
▁proposed	-10.1586
bean	-10.1595
▁Borough	-10.1602
▁training	-10.1608
▁build	-10.1609
▁Rail	-10.162
▁behavior	-10.1622
▁houses	-10.1622
V	-10.1622
▁foreign	-10.1623
▁Fort	-10.1623
Later	-10.1624
▁Foundation	-10.1624
▁belief	-10.1625
▁goals	-10.1631
▁bird	-10.1633
▁tradition	-10.1636
▁Moscow	-10.1644
▁experience	-10.1647
▁paint	-10.1655
well	-10.1659
▁Age	-10.1666
▁distinguish	-10.1669
▁Hungary	-10.1669
▁command	-10.1671
▁skin	-10.1676
▁Marie	-10.168
▁carbon	-10.1692
▁List	-10.1697
▁Jane	-10.1702
▁landfall	-10.1709
▁1\/2	-10.1709
▁bad	-10.171
▁aircraft	-10.1712
▁wood	-10.1718
▁frequently	-10.1721
▁DVD	-10.1724
▁semi	-10.1725
▁opposite	-10.1731
▁Carib	-10.1733
▁drama	-10.1736
▁Power	-10.1739
▁en	-10.1741
▁songwriter	-10.1749
▁minutes	-10.1754
K	-10.1755
▁portion	-10.1759
▁pieces	-10.1763
▁drink	-10.177
▁Office	-10.1771
▁Princess	-10.1773
▁families	-10.1779
▁levels	-10.1779
▁indicate	-10.1781
▁spell	-10.1791
▁treat	-10.1791
▁partement	-10.1798
▁twice	-10.1819
▁Federation	-10.182
▁mountains	-10.1822
▁Minnesota	-10.1822
▁da	-10.1823
▁1932	-10.1828
▁online	-10.1828
▁trains	-10.1832
▁awards	-10.1836
▁fresh	-10.1841
▁closed	-10.1848
▁hair	-10.1851
▁1934	-10.1855
▁electron	-10.1863
▁transport	-10.1863
▁Peninsula	-10.1864
▁Sunday	-10.1869
▁colon	-10.1871
▁prison	-10.1875
▁ISBN	-10.1876
G	-10.1879
▁Hot	-10.1884
▁genre	-10.1889
▁cut	-10.1893
▁From	-10.1899
▁strength	-10.1908
▁zone	-10.1908
▁municipalities	-10.1909
▁kingdom	-10.1909
▁technology	-10.1911
aught	-10.1919
▁meet	-10.1927
▁know	-10.1934
▁Kansas	-10.1939
▁Greater	-10.1941
▁dry	-10.195
▁Kelly	-10.1955
ca	-10.1969
▁Good	-10.1971
▁society	-10.1977
▁ex	-10.1979
▁goe	-10.1985
▁Go	-10.2009
▁involve	-10.2016
▁Sar	-10.2023
▁solar	-10.2025
▁solid	-10.2031
▁Jack	-10.2038
▁Frederick	-10.2038
▁wall	-10.2043
▁combination	-10.2047
▁wave	-10.2066
▁define	-10.2067
▁Top	-10.207
▁watch	-10.207
▁religion	-10.2074
▁cast	-10.2101
▁approach	-10.2102
▁literal	-10.2102
▁Portugal	-10.2113
▁letters	-10.2119
▁alone	-10.2134
▁Argentina	-10.2136
▁garden	-10.2138
▁chess	-10.214
▁escape	-10.2147
▁Total	-10.2151
▁dates	-10.2154
W	-10.2155
▁Asian	-10.2156
▁novels	-10.2158
▁mixed	-10.2159
bury	-10.2161
▁Garden	-10.2165
▁Armenia	-10.2174
▁slow	-10.2179
▁Mediterranean	-10.2181
▁category	-10.2181
▁historian	-10.2181
▁organiz	-10.2184
▁metres	-10.219
▁formal	-10.2192
▁extend	-10.2198
▁studi	-10.2198
▁provinces	-10.2199
▁peace	-10.2205
▁permanent	-10.2207
▁Re	-10.2212
▁Metropolitan	-10.2215
SB	-10.2219
▁critic	-10.2227
▁Constitution	-10.2228
▁liquid	-10.2233
▁Gregoria	-10.2235
ina	-10.2243
▁Arabic	-10.2256
▁soldiers	-10.2257
▁Out	-10.2265
▁effects	-10.2271
▁avoid	-10.2273
▁Ca	-10.2299
▁provid	-10.23
▁Home	-10.2311
▁alphabet	-10.2312
▁Song	-10.2316
▁medal	-10.2319
▁search	-10.2323
▁Highway	-10.2325
▁comic	-10.2328
▁tourist	-10.2333
▁fully	-10.2333
▁crown	-10.2346
▁Opera	-10.2347
▁Bell	-10.2348
▁classified	-10.2351
ful	-10.2353
▁floor	-10.2357
▁headquarters	-10.2366
▁arrest	-10.2368
▁physics	-10.2368
▁grown	-10.2369
▁audience	-10.2371
▁flight	-10.2382
▁definition	-10.2386
á	-10.2402
▁convert	-10.2403
▁comprise	-10.2405
▁activities	-10.2414
▁Bureau	-10.2414
▁Munich	-10.2415
▁Dominican	-10.2415
▁episodes	-10.2416
▁1912	-10.2418
▁outer	-10.2418
▁bottom	-10.2418
▁Modern	-10.2418
▁Stephen	-10.2425
▁formation	-10.2432
▁attacks	-10.2437
▁executive	-10.2439
▁disk	-10.2441
▁Network	-10.2443
▁string	-10.2449
▁Sam	-10.246
▁compared	-10.246
▁angle	-10.2461
▁Christmas	-10.2463
▁sexual	-10.2476
▁festival	-10.2482
▁2011	-10.2484
▁midfielder	-10.2485
▁parallel	-10.2488
▁applications	-10.2489
▁Steve	-10.2497
Today	-10.2497
▁Sol	-10.2498
▁atom	-10.25
▁Their	-10.2507
▁necessar	-10.2509
▁motion	-10.2511
▁Norway	-10.2513
aceae	-10.2522
▁Wood	-10.2525
▁Gold	-10.2526
▁news	-10.2527
▁arms	-10.2543
▁poor	-10.2551
▁mosque	-10.2556
▁extensive	-10.2557
▁potential	-10.2557
▁As	-10.2558
▁respectively	-10.2564
▁Pok	-10.257
▁arts	-10.2577
▁chain	-10.258
p	-10.2592
▁punk	-10.2595
▁1919	-10.26
▁estimat	-10.2602
▁matter	-10.2607
▁street	-10.2608
▁1925	-10.2608
▁Don	-10.261
▁confirm	-10.261
▁32	-10.2614
▁CD	-10.2614
▁Main	-10.2633
▁Open	-10.2636
▁Upper	-10.2638
▁horse	-10.2644
▁Palace	-10.2652
▁shell	-10.2659
Follow	-10.2659
▁me	-10.2659
ty	-10.266
▁brothers	-10.2661
▁1935	-10.2664
▁box	-10.2666
▁score	-10.267
▁der	-10.267
▁target	-10.2677
▁bodies	-10.2678
and	-10.2686
CW	-10.2687
▁1914	-10.2691
General	-10.2692
▁Mar	-10.2692
b	-10.2702
▁occasional	-10.2707
▁stopp	-10.2707
ization	-10.2712
▁designation	-10.2718
▁Y	-10.272
All	-10.2721
9	-10.2723
▁guest	-10.2725
Like	-10.2727
▁Abbottabad	-10.275
▁prize	-10.2751
▁\	-10.2757
▁Station	-10.2761
▁defend	-10.2762
▁1901	-10.2763
▁weight	-10.2773
▁narrow	-10.2774
▁Billboard	-10.2775
West	-10.2789
▁exchange	-10.2793
▁surround	-10.2793
▁latter	-10.2798
▁milk	-10.28
▁Women	-10.2807
▁ideas	-10.2807
▁castle	-10.2808
▁spot	-10.2809
▁regional	-10.281
haps	-10.2813
▁property	-10.2823
off	-10.2828
▁edge	-10.2829
▁Yorkshire	-10.283
▁shot	-10.2832
▁seem	-10.2836
stone	-10.2837
▁Di	-10.2839
▁Events	-10.2842
▁With	-10.2847
▁prior	-10.2848
▁ships	-10.2849
▁script	-10.2857
▁occupie	-10.2863
▁SmackDown	-10.2872
▁collect	-10.2876
▁deriv	-10.2893
▁Finland	-10.2897
ard	-10.2899
▁dog	-10.2901
▁fashion	-10.2901
▁defender	-10.2907
▁conduct	-10.2917
▁suburb	-10.2918
▁pp	-10.2919
▁internal	-10.2923
▁Triple	-10.2925
▁lyrics	-10.2927
▁Space	-10.2928
▁Vend	-10.2928
ington	-10.2934
▁additional	-10.2937
▁churches	-10.2942
▁museum	-10.2947
▁circle	-10.2951
▁cycle	-10.2957
▁Ross	-10.2959
▁fair	-10.2962
▁Director	-10.2963
▁explain	-10.2971
▁Aargau	-10.2971
▁Hong	-10.2973
▁tribe	-10.2977
▁originat	-10.2983
▁v	-10.2984
▁format	-10.2985
▁Li	-10.2988
▁unique	-10.2988
▁Wilson	-10.2989
▁cars	-10.2997
▁Robinson	-10.3004
▁shared	-10.3007
▁draft	-10.3022
▁Na	-10.3029
▁plane	-10.3043
▁effort	-10.3046
▁Library	-10.3046
▁whe	-10.3052
▁soft	-10.3053
▁Florence	-10.3054
burg	-10.3062
▁yet	-10.3075
ities	-10.3075
▁fine	-10.3078
▁core	-10.3087
▁route	-10.3088
▁Justice	-10.3098
▁address	-10.3108
Saint	-10.3108
▁Three	-10.3112
William	-10.3118
▁Navy	-10.3124
▁extra	-10.3124
▁Williams	-10.3128
▁Ha	-10.313
▁causes	-10.313
▁household	-10.3137
▁soil	-10.3149
▁Colorado	-10.3151
▁Daniel	-10.3154
▁arrive	-10.3158
▁Hamilton	-10.3161
level	-10.3165
Also	-10.3166
▁medium	-10.3172
▁administration	-10.3173
▁giant	-10.3174
▁Abbey	-10.3175
▁300	-10.3176
▁identified	-10.3178
▁Category	-10.3198
▁eggs	-10.3198
▁suggested	-10.3203
▁And	-10.3217
▁Taylor	-10.3218
▁Vietnam	-10.3224
os	-10.323
▁occurred	-10.3232
▁contest	-10.3241
▁PC	-10.3243
▁gre	-10.3246
▁impact	-10.325
▁programm	-10.325
▁Tokyo	-10.3253
▁results	-10.3263
▁1926	-10.3264
▁Rio	-10.3274
▁Grammy	-10.3275
▁document	-10.3276
▁editor	-10.3286
▁Dark	-10.3293
▁Baden	-10.3293
▁contact	-10.3301
▁statistics	-10.3303
▁capacity	-10.3303
▁seventh	-10.3304
▁buri	-10.3306
tic	-10.3307
▁someone	-10.3309
ma	-10.3315
▁killing	-10.3317
▁couple	-10.3318
▁parliament	-10.3319
▁evolution	-10.3325
▁Bowl	-10.3326
▁territories	-10.3326
▁memory	-10.3327
▁WWF	-10.3328
▁FC	-10.3335
rew	-10.3349
▁girl	-10.3349
▁obtain	-10.3352
▁glass	-10.3354
▁iron	-10.3361
▁powers	-10.3362
▁rose	-10.3371
▁secondary	-10.3374
▁historic	-10.3376
▁Committee	-10.3378
▁Montreal	-10.338
co	-10.338
▁1924	-10.3381
▁ending	-10.3384
▁graduate	-10.3386
▁satellite	-10.3391
▁govern	-10.3391
▁twelve	-10.3403
▁Centre	-10.3406
▁fields	-10.3408
▁1910	-10.341
▁Hitler	-10.3411
▁interview	-10.3411
▁earthquake	-10.3417
▁console	-10.3418
▁images	-10.3419
▁computers	-10.3421
▁estimate	-10.3423
ish	-10.3433
▁Cha	-10.3436
▁file	-10.3438
▁meters	-10.3444
▁rare	-10.3453
spite	-10.3454
tage	-10.3455
▁abbreviated	-10.3458
▁rail	-10.346
3\/4	-10.3465
▁engines	-10.3467
▁van	-10.3468
▁captain	-10.3476
▁FIFA	-10.3487
▁dat	-10.3496
▁issue	-10.3504
▁Milan	-10.3505
▁rais	-10.3506
▁Dur	-10.351
▁Philip	-10.3516
7	-10.3518
ai	-10.3523
▁1927	-10.3524
▁wh	-10.3527
▁candidate	-10.3535
▁Ra	-10.354
▁Death	-10.3546
▁Brother	-10.3564
▁extended	-10.357
▁Bavaria	-10.3576
▁basi	-10.3581
▁Film	-10.3582
▁medicine	-10.3588
▁Max	-10.3594
tial	-10.3603
▁Wars	-10.3607
▁Rh	-10.3615
▁compounds	-10.3621
▁astronomer	-10.3623
▁Johnson	-10.3629
▁1928	-10.3631
▁straight	-10.3636
▁Francis	-10.3638
▁pianist	-10.364
▁folk	-10.3657
▁ft	-10.3658
▁bear	-10.3658
▁Bad	-10.3662
▁stock	-10.3663
▁Way	-10.3665
▁exact	-10.3667
▁Danish	-10.3671
▁Square	-10.3673
▁generation	-10.3674
,000	-10.3689
▁drummer	-10.3694
▁comedian	-10.3695
▁response	-10.3697
▁foot	-10.3697
▁earth	-10.37
▁inter	-10.3708
▁tribes	-10.3718
▁1923	-10.3721
▁expansion	-10.3721
▁Jews	-10.3725
▁Ba	-10.3735
▁restaurant	-10.3748
▁Dictionary	-10.3751
▁count	-10.3762
▁Jones	-10.3765
▁suffer	-10.3769
▁forward	-10.3771
▁tail	-10.3772
▁Last	-10.3774
▁Territory	-10.3774
▁arm	-10.3776
▁template	-10.3776
more	-10.3779
▁Arab	-10.3789
▁laws	-10.3791
▁75	-10.3792
▁fly	-10.3792
▁Imperial	-10.3793
▁sales	-10.3797
▁Carl	-10.3803
▁Adams	-10.3809
▁Interstate	-10.3812
▁tube	-10.3813
▁raise	-10.3823
▁issued	-10.3827
▁33	-10.3828
▁request	-10.3829
▁Joe	-10.3829
▁Ottoman	-10.383
ng	-10.3837
▁smallest	-10.3839
▁individuals	-10.385
▁meant	-10.385
▁mathematician	-10.3853
▁sugar	-10.3856
▁Argentine	-10.3856
▁resign	-10.3859
▁Egyptian	-10.3861
▁operation	-10.3862
▁rise	-10.3862
▁Education	-10.3867
▁Pro	-10.3869
▁engineer	-10.3874
Â	-10.3885
▁Rose	-10.3887
▁believ	-10.3892
▁forest	-10.3893
▁increasing	-10.3895
▁Christianity	-10.3896
▁belt	-10.3902
▁parties	-10.3904
▁franchise	-10.3912
▁express	-10.3915
▁sentence	-10.3918
▁1908	-10.3919
▁Social	-10.3921
▁fund	-10.3929
▁employ	-10.3931
▁drums	-10.3939
▁youngest	-10.3945
tropical	-10.3951
▁ne	-10.3953
▁proper	-10.396
▁Å	-10.3962
▁64	-10.3968
▁organisms	-10.3969
▁moons	-10.3974
▁store	-10.3976
▁retain	-10.3989
▁decision	-10.3994
▁usage	-10.3994
▁contrast	-10.3994
▁Lower	-10.4
▁organizations	-10.4003
▁Tim	-10.4007
▁chocolate	-10.402
▁striker	-10.4023
▁demand	-10.4023
▁ethnic	-10.4024
▁EP	-10.4031
▁Final	-10.4032
▁That	-10.4033
▁musicians	-10.4036
▁wine	-10.4046
▁silver	-10.4047
▁Madrid	-10.4049
▁signal	-10.4051
▁Ne	-10.4054
▁save	-10.4056
▁matche	-10.4056
▁1911	-10.4061
▁Pictures	-10.4067
ich	-10.4072
▁mission	-10.4075
▁bound	-10.4075
▁loss	-10.4076
▁goddess	-10.4076
▁selection	-10.4079
▁cool	-10.4086
▁difference	-10.4086
▁Virgin	-10.41
▁attention	-10.4106
▁weaken	-10.4106
▁Mexican	-10.4108
Despi	-10.412
▁trial	-10.4121
▁jazz	-10.4133
▁treatment	-10.4134
songwriter	-10.4136
▁Walter	-10.4137
▁authority	-10.4141
▁picture	-10.416
▁NBA	-10.4163
▁Public	-10.4163
▁Antarctic	-10.4164
▁1922	-10.4166
▁Times	-10.4167
▁eyes	-10.4168
Loire	-10.4168
▁hands	-10.4168
▁burn	-10.417
▁VI	-10.4178
▁News	-10.4182
▁Mi	-10.419
▁morning	-10.419
But	-10.4192
Early	-10.4193
▁limit	-10.4201
▁cat	-10.4204
▁traditionally	-10.4204
Between	-10.4216
▁fuel	-10.4225
▁Jim	-10.4229
▁Special	-10.4236
▁send	-10.424
▁Moon	-10.424
▁throne	-10.4244
▁Racing	-10.4249
▁paintings	-10.4252
▁Potter	-10.4264
▁fast	-10.4264
▁",	-10.427
▁possibly	-10.4272
▁insect	-10.4272
▁majorit	-10.4272
▁pilot	-10.4273
▁unusual	-10.4273
coming	-10.4286
west	-10.4296
▁Matt	-10.4296
▁positive	-10.4301
▁Assembly	-10.4303
▁Research	-10.4309
▁jump	-10.431
▁kilometers	-10.4315
▁flowers	-10.4318
▁saying	-10.4322
▁fans	-10.4322
▁Up	-10.4331
▁Hollywood	-10.4333
▁Forest	-10.4334
▁meat	-10.4337
▁Geneva	-10.4337
▁beach	-10.4353
▁locomotive	-10.4358
▁Philadelphia	-10.4359
▁bacteria	-10.4359
▁Ta	-10.436
▁Detroit	-10.436
▁structures	-10.4362
▁agreement	-10.4368
▁1917	-10.4368
▁Karl	-10.4377
▁More	-10.4384
▁influen	-10.4384
▁Theatre	-10.4388
▁molecule	-10.4388
▁Mars	-10.4388
▁Afghanistan	-10.4388
▁protein	-10.439
▁Johann	-10.441
ki	-10.4415
▁Car	-10.442
▁conflict	-10.4426
▁Bar	-10.443
▁Guinea	-10.4432
▁visible	-10.4435
▁universe	-10.4438
▁economy	-10.4444
▁creat	-10.4447
ology	-10.4456
▁staff	-10.4459
▁edit	-10.4459
▁performing	-10.4461
▁But	-10.4463
▁clubs	-10.4466
▁Vice	-10.4471
▁Senat	-10.448
▁Sports	-10.4497
▁functions	-10.4498
▁captured	-10.4499
▁classification	-10.4503
▁equivalent	-10.4503
▁journalist	-10.4514
▁discover	-10.4519
▁Philharmonic	-10.4531
▁Bros	-10.4534
▁reform	-10.4535
▁Friday	-10.4536
▁owner	-10.4539
▁However	-10.454
▁Post	-10.4546
▁onto	-10.455
les	-10.4553
▁architect	-10.4561
▁Arizona	-10.4563
▁hall	-10.4579
▁Official	-10.458
▁du	-10.4584
▁Saturday	-10.4591
▁DS	-10.4597
▁Hungarian	-10.4608
▁deliver	-10.4613
▁doctor	-10.4619
J	-10.462
▁tracks	-10.462
▁PlayStation	-10.462
▁Quebec	-10.462
▁Norwegian	-10.4622
▁SS	-10.4633
ka	-10.4641
▁Iraq	-10.4643
▁determine	-10.4644
▁radiation	-10.4648
▁MP	-10.4649
▁Mo	-10.4651
▁singing	-10.4662
▁inches	-10.4667
▁observed	-10.4675
▁else	-10.4679
▁cap	-10.4681
atomic	-10.4683
▁boy	-10.4686
▁Wilhelm	-10.4693
▁Missouri	-10.471
▁Ministry	-10.4712
bility	-10.4719
▁Maya	-10.4732
▁universities	-10.4737
▁Harrison	-10.4746
Un	-10.4755
▁coastal	-10.4756
▁Har	-10.476
▁transferr	-10.4764
▁empire	-10.4768
▁steel	-10.4769
▁Chile	-10.477
▁marked	-10.4777
▁stream	-10.4779
▁campus	-10.4782
▁oppos	-10.4782
▁treaty	-10.4784
ge	-10.4788
▁Pan	-10.4799
▁classic	-10.4803
▁spin	-10.4814
▁Water	-10.4816
▁shore	-10.4818
▁attract	-10.4819
▁Supreme	-10.4828
Sir	-10.4834
▁1890	-10.4846
▁promote	-10.4849
▁global	-10.485
▁senior	-10.4856
▁Ticino	-10.4857
▁Muslims	-10.4858
▁manag	-10.486
▁Socialist	-10.4861
▁capture	-10.4861
▁broad	-10.4866
▁plastic	-10.488
▁mm	-10.4887
▁daily	-10.4888
▁Statistics	-10.4893
▁issues	-10.4901
▁ruler	-10.4909
▁walls	-10.4909
▁Renaissance	-10.4917
▁management	-10.492
▁sites	-10.4921
▁:",	-10.4928
ius	-10.4938
▁pioneer	-10.4947
▁Taiwan	-10.4947
▁Community	-10.4948
Though	-10.4949
▁medieval	-10.4949
▁coming	-10.4949
▁MTV	-10.495
▁biology	-10.495
▁mechanical	-10.4951
▁successor	-10.4952
▁vocalist	-10.4953
▁Professor	-10.4959
▁theme	-10.496
▁What	-10.4964
▁throw	-10.4965
▁master	-10.4971
▁Brian	-10.4972
▁Mid	-10.4973
▁enjoy	-10.4974
▁Creek	-10.4977
▁judge	-10.4978
▁writers	-10.4979
▁prayer	-10.4984
▁Un	-10.4988
▁Bangladesh	-10.4988
▁Dan	-10.4992
ade	-10.5005
▁Hawaii	-10.5008
▁Labor	-10.5011
▁register	-10.5014
▁scored	-10.503
ung	-10.5033
▁communities	-10.5038
▁agreed	-10.5039
▁Pittsburgh	-10.504
▁operations	-10.5044
▁Master	-10.5049
▁bit	-10.5052
▁waves	-10.5061
▁Wisconsin	-10.507
▁examples	-10.5077
▁Mike	-10.5078
▁partner	-10.5079
▁care	-10.5082
▁sleep	-10.5082
▁38	-10.5086
▁domestic	-10.5089
▁Alfred	-10.5096
Robert	-10.5098
▁governor	-10.5098
▁Image	-10.5101
▁painting	-10.511
▁sons	-10.5111
▁note	-10.5112
▁entry	-10.5113
▁mainland	-10.5116
▁Bob	-10.5119
▁application	-10.5126
▁newly	-10.513
▁violin	-10.5131
▁maximum	-10.5131
▁Monday	-10.5134
▁Angel	-10.5135
▁bright	-10.5135
▁contemporary	-10.5138
▁1913	-10.514
▁my	-10.5161
▁tennis	-10.5162
▁Frontier	-10.5162
▁inclination	-10.5164
▁Birmingham	-10.5164
▁villages	-10.5171
Security	-10.5174
▁Apple	-10.5174
▁wing	-10.5175
▁Republican	-10.5178
▁selling	-10.5188
▁freedom	-10.5193
▁technical	-10.5197
▁Jefferson	-10.52
▁Neptune	-10.5202
it	-10.5204
den	-10.5206
▁Warner	-10.5207
▁purposes	-10.5209
east	-10.5212
▁400	-10.5215
▁1916	-10.5216
▁happened	-10.5217
▁remove	-10.5218
▁dogs	-10.5229
▁Philippines	-10.5235
▁relations	-10.5236
▁blues	-10.5237
▁clock	-10.5239
▁Commission	-10.5249
▁methods	-10.525
▁peninsula	-10.5255
mouth	-10.5255
▁Tower	-10.5257
▁surviv	-10.5262
▁Ferdinand	-10.5266
▁mayor	-10.5271
▁Seven	-10.5274
▁Under	-10.5277
ba	-10.5282
▁weapons	-10.5287
▁representative	-10.5288
▁chamber	-10.5289
▁incorporat	-10.5292
▁Ray	-10.5311
▁Heri	-10.5317
▁properties	-10.5318
▁skill	-10.5322
▁strengthen	-10.5325
▁sides	-10.5327
▁dollar	-10.5328
▁Paulo	-10.5337
▁goods	-10.5339
▁marine	-10.5342
▁Simon	-10.5354
▁Beatles	-10.5355
un	-10.5355
▁Friedrich	-10.5356
▁critical	-10.536
fish	-10.5368
▁Mal	-10.5378
▁differences	-10.5379
▁Cal	-10.538
▁financial	-10.538
house	-10.5382
▁importance	-10.5382
▁Vancouver	-10.5384
▁Westminster	-10.5384
▁decade	-10.5385
▁Mayor	-10.5397
▁u	-10.5397
▁processes	-10.5409
▁Vauclus	-10.5413
▁failure	-10.5413
▁Puerto	-10.5418
▁publish	-10.542
▁defense	-10.5422
▁Independence	-10.5427
▁tea	-10.5428
▁sand	-10.5428
▁Matthew	-10.5436
▁press	-10.5437
▁physicist	-10.5445
▁presence	-10.5445
▁Jos	-10.5447
▁invasion	-10.5448
▁Muhammad	-10.5452
▁license	-10.5453
▁51	-10.5454
▁breed	-10.5459
▁Both	-10.5471
▁depict	-10.5471
▁install	-10.5477
▁Medicine	-10.5478
library	-10.5479
▁mark	-10.548
▁1921	-10.5491
▁Survivor	-10.5493
▁Hart	-10.5495
▁Benjamin	-10.5496
▁Su	-10.55
▁1902	-10.55
▁column	-10.5501
▁voted	-10.5506
▁stands	-10.551
▁goaltender	-10.5515
▁processor	-10.5519
▁Caesar	-10.5526
▁broke	-10.5526
▁youth	-10.5531
▁Indonesia	-10.5532
Born	-10.5535
▁promotion	-10.5536
▁differ	-10.5536
▁price	-10.5536
▁joint	-10.5539
▁percent	-10.5541
LC	-10.5546
▁pick	-10.5546
temporary	-10.5546
▁asteroids	-10.5556
stein	-10.5556
▁VIII	-10.5566
▁reflect	-10.5567
uring	-10.5567
sh	-10.5569
▁fossil	-10.5569
▁crust	-10.5571
ir	-10.5572
▁Hebrew	-10.5575
▁Draft	-10.5576
▁Midland	-10.5576
▁security	-10.5578
▁Country	-10.5578
▁1915	-10.558
▁quality	-10.5589
▁foundation	-10.5592
▁sell	-10.5595
▁extension	-10.5606
▁Lewis	-10.5609
▁negative	-10.561
▁WrestleMania	-10.5612
▁commission	-10.562
▁genetic	-10.5623
▁Studios	-10.5629
▁feed	-10.5634
▁nominat	-10.5645
Under	-10.5645
▁reality	-10.5647
▁Adam	-10.5648
▁Standard	-10.5653
▁Band	-10.5658
▁min	-10.566
▁translat	-10.5666
▁extinct	-10.567
winning	-10.5674
▁path	-10.5689
▁rura	-10.569
▁firm	-10.5696
▁equipment	-10.5703
▁fiber	-10.5704
▁graduat	-10.5704
▁oxide	-10.5714
▁crash	-10.5715
▁Anna	-10.5722
▁1865	-10.5728
▁Ali	-10.5731
▁Heart	-10.5733
em	-10.5735
▁achiev	-10.5742
▁climb	-10.5746
▁gods	-10.5748
▁Darwin	-10.575
▁Underground	-10.5769
▁los	-10.5773
▁é	-10.5775
▁solution	-10.5788
▁Human	-10.5798
▁tissue	-10.5802
▁Les	-10.5803
▁leap	-10.5804
ola	-10.5804
▁output	-10.5806
▁Board	-10.5808
▁Children	-10.5809
▁colonial	-10.5811
pur	-10.5811
ward	-10.5814
1906	-10.5817
▁traffic	-10.5819
warded	-10.5826
James	-10.5827
ler	-10.5827
▁attached	-10.583
▁transfer	-10.584
▁celebrate	-10.584
▁prey	-10.5843
▁fantasy	-10.5846
▁bus	-10.5847
ier	-10.5853
▁affect	-10.5855
▁fame	-10.5859
▁sequence	-10.5866
▁Conservative	-10.5868
▁Communist	-10.5875
▁Captain	-10.5877
▁values	-10.5884
▁Samuel	-10.5887
▁statement	-10.5888
èc	-10.5889
▁Your	-10.589
ory	-10.5893
speak	-10.5897
quite	-10.5899
▁decades	-10.5901
▁shift	-10.5904
▁brown	-10.5928
▁degrees	-10.5929
▁VII	-10.5931
▁tributar	-10.5935
▁Arkansas	-10.5936
▁speaker	-10.5942
▁If	-10.5945
▁Member	-10.5951
▁condition	-10.5952
▁projects	-10.5955
▁items	-10.5957
der	-10.5962
▁achieve	-10.5962
▁Monte	-10.5969
▁hydrogen	-10.5972
▁fell	-10.5982
▁technique	-10.5983
▁65	-10.5985
▁passe	-10.5985
▁pro	-10.5986
▁races	-10.5993
▁Or	-10.5994
ri	-10.6001
▁Finnish	-10.6005
▁Liverpool	-10.6005
▁explorer	-10.601
▁Kim	-10.6016
▁Can	-10.6021
▁sail	-10.6022
▁crime	-10.6025
▁rival	-10.6031
▁Another	-10.6031
▁Heavyweight	-10.6036
▁notes	-10.6045
▁Diego	-10.6046
▁teaching	-10.605
▁models	-10.6053
▁vehicle	-10.6053
▁Hills	-10.6054
ya	-10.6056
▁divide	-10.6058
▁magnitude	-10.606
▁OS	-10.6063
▁inspir	-10.6065
▁accident	-10.6073
▁bond	-10.6074
▁Alpes	-10.6078
▁Patrick	-10.6084
▁Wild	-10.6087
▁Organization	-10.6091
▁leaders	-10.6091
▁storms	-10.6097
▁Kennedy	-10.61
▁Xbox	-10.6104
▁bassist	-10.6109
▁Phoenix	-10.6109
▁unknown	-10.6111
▁Graham	-10.6117
ter	-10.6122
▁End	-10.6134
▁facilities	-10.6138
▁cipher	-10.6138
▁combin	-10.6156
▁Cuba	-10.6156
▁ceremony	-10.6172
▁Byzantine	-10.6173
▁Defense	-10.6175
▁Euro	-10.6175
▁card	-10.6176
▁Adventure	-10.6177
▁Chancellor	-10.6178
▁unlike	-10.6178
▁representing	-10.618
▁devices	-10.618
▁aim	-10.6181
▁Voyager	-10.6183
▁dancer	-10.6187
▁income	-10.6191
▁w	-10.6192
▁Han	-10.6201
ant	-10.6202
▁politics	-10.621
▁collapse	-10.6216
▁1904	-10.6218
▁1903	-10.622
▁expression	-10.6221
▁snow	-10.6227
▁correct	-10.6228
▁classes	-10.6231
▁formally	-10.6232
▁notabl	-10.6233
▁parish	-10.6234
▁atmosphere	-10.6241
▁subdivision	-10.6242
▁crew	-10.6243
▁tool	-10.6243
▁Century	-10.6245
▁effective	-10.6246
▁recover	-10.6249
▁infection	-10.6251
▁decide	-10.6252
▁performances	-10.6253
▁twin	-10.6259
▁reaction	-10.6266
▁oxygen	-10.6276
▁36	-10.628
▁legs	-10.628
▁Temple	-10.628
▁reduced	-10.6281
▁requir	-10.6287
▁Media	-10.6288
▁aid	-10.6291
▁designer	-10.6299
life	-10.6299
Westphalia	-10.6305
▁goalkeeper	-10.6311
▁Welsh	-10.6312
▁roots	-10.6324
▁Mont	-10.6327
▁Roger	-10.6333
▁hill	-10.6338
▁Depression	-10.6345
▁let	-10.6346
▁Trophy	-10.6347
▁seeds	-10.6349
▁Tony	-10.6366
▁instance	-10.6367
▁manufacture	-10.6374
▁literary	-10.6381
▁equator	-10.6381
▁Cat	-10.6382
▁Tennessee	-10.6382
▁About	-10.6387
▁flavor	-10.639
▁organic	-10.64
▁appearances	-10.6403
▁34	-10.6405
▁Men	-10.6405
▁paid	-10.642
▁1895	-10.6422
▁1931	-10.6427
▁electrical	-10.6429
▁Die	-10.643
▁message	-10.6448
▁residents	-10.6448
▁recordings	-10.645
▁activist	-10.6451
▁Testament	-10.6451
▁Memorial	-10.6452
▁Idaho	-10.6452
12	-10.6456
▁coat	-10.6462
▁determin	-10.6467
▁dropp	-10.6469
▁Years	-10.6475
▁Ring	-10.6476
▁constant	-10.6482
▁communication	-10.6482
▁Allen	-10.6484
▁thin	-10.6485
spread	-10.6486
▁Monroe	-10.6491
▁Hugh	-10.6498
▁adapt	-10.65
▁slowly	-10.65
▁dispute	-10.6507
away	-10.6514
▁Walloon	-10.6522
▁keyboard	-10.6524
rs	-10.6526
▁Glasgow	-10.6527
▁Bobby	-10.6528
▁useful	-10.6543
▁Ukraine	-10.6559
▁boundar	-10.6563
▁Zone	-10.6565
org	-10.657
New	-10.6586
▁copy	-10.6586
▁phrase	-10.6587
▁municipal	-10.659
▁holding	-10.6593
▁storage	-10.6593
▁strip	-10.6595
▁remember	-10.6596
▁worn	-10.6597
▁visual	-10.6601
▁brain	-10.6604
▁Sch	-10.6605
X	-10.6606
▁Bruce	-10.6606
▁celebrat	-10.6611
▁pattern	-10.6623
century	-10.6629
▁drug	-10.663
▁translate	-10.6631
▁poetry	-10.6633
▁electricity	-10.6635
▁Bishop	-10.6637
▁protection	-10.6638
▁rarely	-10.6638
▁aspect	-10.6643
▁Miller	-10.6646
▁Cold	-10.6646
▁produc	-10.6648
▁Ch	-10.665
▁Sarah	-10.6652
▁banks	-10.6653
▁Iron	-10.6664
Two	-10.6665
▁Language	-10.6666
▁chang	-10.6667
▁Haiti	-10.6669
▁Urdu	-10.667
▁Charlotte	-10.6676
▁rat	-10.6681
▁How	-10.6681
▁Ten	-10.6684
án	-10.669
worth	-10.6694
▁Tehsil	-10.6696
▁Junior	-10.6701
▁huge	-10.6701
▁UEFA	-10.6702
▁agent	-10.6703
▁roll	-10.6708
▁Jordan	-10.6713
▁favor	-10.6715
▁claims	-10.6717
ur	-10.6721
▁Jan	-10.6724
▁slave	-10.6736
▁mathematical	-10.6737
▁Gaelic	-10.6739
▁Atlanta	-10.6742
▁authorities	-10.6742
▁vertical	-10.6743
▁conference	-10.6743
▁super	-10.6746
▁Juan	-10.6751
▁weak	-10.6755
▁sets	-10.6765
▁destroy	-10.6766
▁workers	-10.677
▁Pierre	-10.6773
▁mixture	-10.6773
▁opposition	-10.6773
▁Connecticut	-10.6773
▁Third	-10.6777
▁fellow	-10.6778
▁Franklin	-10.6779
▁Television	-10.6779
moto	-10.6779
▁analysis	-10.6781
▁charts	-10.6789
▁Rangers	-10.6791
long	-10.6792
▁branches	-10.6795
▁Chess	-10.6797
▁Real	-10.6798
▁carry	-10.6801
▁spend	-10.681
More	-10.681
▁dinosaur	-10.6811
▁bishop	-10.6813
▁respect	-10.6813
▁participat	-10.682
▁uniform	-10.6834
▁Dream	-10.684
▁Is	-10.684
▁compete	-10.6843
▁Eric	-10.6846
▁passenger	-10.6846
▁55	-10.6847
▁lakes	-10.6848
▁talent	-10.6848
▁catch	-10.6849
▁Barcelona	-10.6849
▁Anglo	-10.6852
▁Baptist	-10.6861
ll	-10.6863
▁Bach	-10.6884
▁teeth	-10.6884
▁concentration	-10.6884
ence	-10.6888
▁perfect	-10.689
Paul	-10.6894
▁wealth	-10.6895
▁Dam	-10.6896
▁moment	-10.6907
▁42	-10.6913
▁1907	-10.6917
▁shorten	-10.6919
▁trip	-10.692
▁context	-10.6922
▁leadership	-10.6923
▁Seattle	-10.6924
▁ti	-10.6927
▁felt	-10.6927
▁distribut	-10.6928
George	-10.6928
mon	-10.6933
▁shear	-10.6935
▁showing	-10.694
ious	-10.6945
▁Fair	-10.6949
▁coin	-10.6949
▁meets	-10.6951
landers	-10.6951
▁temple	-10.6959
▁Tamil	-10.6959
▁Period	-10.6961
▁exception	-10.6963
▁organism	-10.6965
combined	-10.6969
▁stretch	-10.6986
▁begin	-10.6988
▁undergroun	-10.6991
▁colour	-10.6993
▁palace	-10.6996
▁cloud	-10.6997
▁sky	-10.6998
▁sweet	-10.6999
▁Orange	-10.7
id	-10.7011
▁Ar	-10.7011
▁cards	-10.7019
▁1000	-10.7019
▁standing	-10.7021
▁Cena	-10.7022
▁involv	-10.7023
▁coffee	-10.7034
▁stress	-10.7036
▁Wagner	-10.7036
▁computing	-10.7038
▁Video	-10.7038
▁Point	-10.7039
▁Light	-10.704
▁Lawrence	-10.7041
▁survive	-10.7042
▁affected	-10.7042
▁merg	-10.7052
▁wins	-10.7055
▁Rob	-10.7056
▁layer	-10.7062
▁Q	-10.707
Another	-10.7074
▁stores	-10.7075
▁Journal	-10.7081
▁Davis	-10.7082
▁Per	-10.7087
▁designat	-10.7087
v	-10.7093
Martin	-10.7093
mann	-10.7104
▁hardware	-10.7107
▁background	-10.7107
▁Wall	-10.7116
▁motor	-10.712
▁rating	-10.7127
▁orange	-10.7128
▁Web	-10.7135
▁nor	-10.7136
▁thick	-10.7138
▁waters	-10.7139
chemistry	-10.7142
eaten	-10.7149
▁Saxe	-10.715
▁ca	-10.715
▁Douglas	-10.7152
▁Vol	-10.7168
▁waste	-10.7171
▁rhythm	-10.7178
▁essential	-10.7182
▁map	-10.7184
▁Legend	-10.7185
▁measur	-10.7185
▁northeastern	-10.7187
evolved	-10.7193
▁tend	-10.7196
▁reading	-10.7196
▁package	-10.7198
▁setting	-10.7199
▁reduce	-10.7209
▁rang	-10.7212
▁eleven	-10.7212
▁sing	-10.7215
▁Jerusalem	-10.7221
▁Edinburgh	-10.7221
▁supply	-10.7222
▁beyon	-10.7223
▁situation	-10.7228
▁Ever	-10.7231
▁hip	-10.7236
▁am	-10.7239
▁Bengal	-10.7244
▁Ant	-10.7244
▁composers	-10.7249
▁switch	-10.7253
all	-10.7254
▁Late	-10.7256
▁Se	-10.7257
▁1870	-10.7263
▁Ages	-10.7267
▁fluid	-10.7267
▁RNA	-10.7268
▁ma	-10.7271
▁queen	-10.7274
▁Wind	-10.7275
▁stem	-10.7279
▁techniques	-10.728
▁Ko	-10.7287
▁Back	-10.7295
▁quantum	-10.7297
▁knowledge	-10.7298
▁risk	-10.7299
▁descent	-10.7299
▁Indo	-10.73
▁Convention	-10.7306
▁Howard	-10.7314
▁Anthony	-10.7314
▁prince	-10.7315
▁Ka	-10.7319
▁Today	-10.732
▁clothing	-10.733
▁academic	-10.7336
▁assistant	-10.7337
▁Uranus	-10.7338
▁choice	-10.7338
▁wound	-10.7339
▁sang	-10.7341
confused	-10.7345
▁Crown	-10.735
light	-10.7352
▁1909	-10.7353
▁Sa	-10.7355
▁tower	-10.7357
▁Syria	-10.7367
▁reject	-10.737
▁choose	-10.7371
back	-10.7371
▁protocol	-10.7374
▁resistance	-10.7374
▁positions	-10.7375
▁measurement	-10.7376
▁organist	-10.7379
▁characteristics	-10.7379
▁Lennon	-10.738
▁Orton	-10.7382
▁mind	-10.7385
▁holiday	-10.7387
▁sauce	-10.7389
ava	-10.7397
▁Down	-10.7398
▁protest	-10.7398
▁algorithm	-10.7413
▁ancestor	-10.7414
▁adaptation	-10.7414
▁GNU	-10.7415
▁detect	-10.7421
▁learning	-10.7427
▁1889	-10.7427
ay	-10.7429
▁Billy	-10.7432
▁uncle	-10.7436
ling	-10.7444
▁plot	-10.7444
▁row	-10.7447
▁Project	-10.7448
▁muscle	-10.7452
▁sustain	-10.7455
▁manage	-10.7463
▁Chi	-10.7476
▁experiment	-10.7483
▁spelling	-10.7483
▁safety	-10.7491
gency	-10.7491
▁Iceland	-10.7494
▁tie	-10.7496
sburg	-10.7496
▁strings	-10.7507
▁1891	-10.7507
▁Christians	-10.7513
CB	-10.7515
▁journal	-10.7515
▁Over	-10.752
▁Five	-10.7523
▁agree	-10.7529
▁Foreign	-10.753
▁lawyer	-10.753
do	-10.7531
▁Police	-10.7531
▁Reich	-10.7534
▁zero	-10.7536
▁execution	-10.7547
▁Br	-10.7552
▁popul	-10.7556
▁routes	-10.7562
▁Kent	-10.7566
▁monument	-10.7569
▁answer	-10.7571
▁1905	-10.7576
▁manufacturer	-10.7577
▁eighth	-10.7584
▁Catherine	-10.7585
▁priest	-10.7585
▁client	-10.7585
Rh	-10.7594
▁Prussia	-10.76
▁Express	-10.7602
▁48	-10.7605
▁Will	-10.7608
▁sample	-10.7609
▁Po	-10.761
▁Manhattan	-10.7612
▁1892	-10.7613
▁camera	-10.7617
$	-10.762
▁touch	-10.7625
▁Ja	-10.7638
▁Anton	-10.7643
▁contributions	-10.7644
▁strike	-10.7646
▁civilian	-10.7652
▁Shakespeare	-10.7654
▁succession	-10.7656
▁Pop	-10.7658
▁Son	-10.7658
▁novelist	-10.7662
▁cup	-10.7664
▁inner	-10.7666
▁civilization	-10.7667
▁push	-10.767
▁Bull	-10.7675
▁compos	-10.7681
▁Medal	-10.7686
▁rainfall	-10.7688
▁Britannica	-10.7689
▁apparent	-10.7689
▁Arctic	-10.7691
▁gett	-10.7693
▁En	-10.7694
▁Carter	-10.7698
▁Alice	-10.7706
▁principle	-10.7707
▁premiere	-10.7711
▁360	-10.7719
▁hospital	-10.7723
▁occupation	-10.7729
nt	-10.7729
▁anime	-10.7729
▁circulation	-10.773
▁diesel	-10.7736
ea	-10.7738
▁compris	-10.7742
▁gun	-10.7752
▁elections	-10.7762
▁conquer	-10.7766
U	-10.7766
▁neighbor	-10.7768
▁pull	-10.777
▁lands	-10.7774
▁deaths	-10.7776
▁Jeff	-10.778
▁improve	-10.7782
David	-10.7783
▁broken	-10.7789
merged	-10.7798
▁Cooper	-10.7799
ire	-10.7801
▁Leonard	-10.7801
▁dedicat	-10.7803
▁worship	-10.7805
Original	-10.7808
▁gradual	-10.7811
▁Dead	-10.7812
▁Louisiana	-10.7812
▁serious	-10.7816
▁apart	-10.7821
▁gland	-10.7824
▁grand	-10.7827
▁Ver	-10.7832
▁Solar	-10.7832
▁stick	-10.7834
▁warning	-10.7834
▁eccentricit	-10.7845
▁fixed	-10.7846
▁legend	-10.7849
▁entertainment	-10.785
era	-10.7851
▁Tag	-10.7852
▁fishing	-10.7852
▁Pyr	-10.7853
▁Mother	-10.7854
▁subtropic	-10.7869
▁lay	-10.787
▁Since	-10.7871
▁cable	-10.7872
▁Sciences	-10.7874
▁settl	-10.7875
▁Affairs	-10.7876
▁Common	-10.7881
▁Christoph	-10.7883
▁airline	-10.7888
▁thirteen	-10.789
▁Magazine	-10.7893
▁Austin	-10.7896
▁1879	-10.7897
expected	-10.7898
▁Homer	-10.7899
▁Austen	-10.79
▁forests	-10.7905
▁Hindu	-10.7914
▁revolution	-10.7915
▁pitch	-10.7919
stead	-10.7924
▁southwester	-10.7926
▁portray	-10.7927
▁resort	-10.7934
▁Universal	-10.7935
▁37	-10.7936
Even	-10.7938
▁Bart	-10.7952
▁Shah	-10.7958
▁Girl	-10.7963
▁connection	-10.7964
▁executed	-10.7971
▁recognition	-10.7972
▁Hospital	-10.7973
▁constitution	-10.7976
▁colonies	-10.7978
▁1899	-10.7978
▁Pi	-10.7979
▁severe	-10.7979
▁1880	-10.7982
▁Russell	-10.7982
▁Clark	-10.7983
▁Silver	-10.7984
▁sharp	-10.799
▁Like	-10.799
▁rescue	-10.8009
▁bill	-10.8009
▁Miami	-10.8017
▁patient	-10.8018
▁soul	-10.8019
▁Celtic	-10.802
▁processing	-10.8022
▁sort	-10.8026
▁reache	-10.8029
▁tax	-10.8029
▁genera	-10.803
Charles	-10.803
▁handle	-10.803
▁arriv	-10.8034
▁Works	-10.804
▁prisoner	-10.804
▁250	-10.804
▁Serie	-10.8042
▁seek	-10.8046
▁resources	-10.8046
▁cyclones	-10.8052
▁combine	-10.8054
▁decline	-10.8054
▁journey	-10.8055
▁Thailand	-10.8059
▁Delta	-10.8059
▁Strait	-10.8061
▁Clinton	-10.8061
.",	-10.8063
▁chairman	-10.8063
▁labor	-10.8068
▁input	-10.8068
▁creator	-10.8071
▁inventor	-10.8076
▁needs	-10.8081
▁39	-10.809
▁chance	-10.8093
▁sit	-10.8094
▁geometry	-10.8096
▁covering	-10.8096
▁passengers	-10.8097
▁Du	-10.8104
▁scheme	-10.8105
▁Airlines	-10.8107
▁Moore	-10.8108
▁mechanics	-10.8109
▁Romanian	-10.811
▁Norse	-10.8113
ney	-10.812
ken	-10.8121
▁Baron	-10.8123
▁rapidly	-10.8128
▁Father	-10.8128
▁Serbia	-10.8128
sis	-10.8129
ble	-10.813
▁desert	-10.8133
▁Sound	-10.8133
▁pure	-10.8133
heim	-10.8133
▁republic	-10.8133
▁description	-10.8137
▁heavily	-10.8137
▁advanced	-10.8138
▁soundtrack	-10.8138
▁rocks	-10.8138
▁competed	-10.8141
▁boundaries	-10.8141
either	-10.8141
▁44	-10.8142
▁threaten	-10.8152
▁belonging	-10.8157
March	-10.8163
▁anthem	-10.8169
▁disaster	-10.8179
▁identity	-10.8179
▁pepper	-10.8179
▁Route	-10.8182
cent	-10.8183
▁Fran	-10.8186
▁Native	-10.8186
▁cheese	-10.8191
▁Story	-10.8192
▁Local	-10.8194
▁Antonio	-10.8197
▁tools	-10.8201
▁cousin	-10.8211
▁root	-10.8212
▁ISO	-10.8228
mobile	-10.8229
▁patent	-10.8236
Through	-10.8239
ular	-10.824
▁evolutionary	-10.8243
▁Head	-10.8249
▁substance	-10.8253
▁Pakistani	-10.8257
▁Ball	-10.826
▁Development	-10.8263
▁opponent	-10.8263
▁equation	-10.8264
▁Houston	-10.8267
▁spiritual	-10.8268
▁Peru	-10.8272
▁rapid	-10.8274
▁Flag	-10.8275
▁cave	-10.8281
Among	-10.8282
▁Sal	-10.8284
▁vehicles	-10.8285
▁crystal	-10.8289
▁Cook	-10.8299
her	-10.8308
▁BCE	-10.8313
▁faster	-10.8316
▁Iranian	-10.8317
▁egg	-10.8319
red	-10.8321
▁monarch	-10.8332
▁secure	-10.8335
▁Hardy	-10.8336
▁adventure	-10.8343
ov	-10.8344
▁pictures	-10.8344
▁Titan	-10.8345
ugby	-10.8345
▁guard	-10.8347
▁ecliptic	-10.8348
▁download	-10.8349
▁massive	-10.8358
▁external	-10.8359
▁survived	-10.8359
▁Champions	-10.836
▁Marshall	-10.8362
▁Bo	-10.8367
Overview	-10.8368
▁hence	-10.8372
▁Plain	-10.8372
▁buy	-10.8375
▁operat	-10.8379
▁absorb	-10.8383
ent	-10.8389
▁magnetic	-10.839
▁Canadiens	-10.8393
▁bann	-10.8397
▁lowest	-10.8401
▁Hugo	-10.8406
neath	-10.841
ura	-10.8414
▁hop	-10.8416
▁styles	-10.842
▁moves	-10.8426
▁coal	-10.8429
▁Alliance	-10.8434
▁biological	-10.8435
▁Site	-10.8435
▁repeated	-10.8437
▁fourteen	-10.8439
▁1898	-10.8443
▁Bernard	-10.8443
▁Ian	-10.8444
▁logic	-10.8445
▁statesman	-10.8447
▁Google	-10.845
Michael	-10.8451
Maritime	-10.8454
type	-10.8459
▁Hesse	-10.847
▁Championships	-10.8471
▁1893	-10.8474
▁trading	-10.8478
▁Bear	-10.8479
Baltimore	-10.848
▁sponsor	-10.8481
▁patron	-10.8481
othurn	-10.8482
▁transition	-10.8484
▁1896	-10.8484
▁hills	-10.8494
▁Salt	-10.8497
Several	-10.8499
▁resident	-10.85
▁powder	-10.8502
▁documents	-10.8503
▁citizens	-10.8504
▁Hans	-10.8514
▁chose	-10.8517
▁advantage	-10.8519
▁Electric	-10.8521
▁intensit	-10.8523
▁Athens	-10.8524
▁Cleveland	-10.8524
laid	-10.8525
▁hotel	-10.8526
▁sisters	-10.8527
▁Commons	-10.854
▁Nichola	-10.8541
▁photograph	-10.8545
▁Ä	-10.8552
▁debate	-10.8553
▁implement	-10.8562
▁copper	-10.8564
▁Queensland	-10.8565
▁Of	-10.8571
▁gray	-10.8574
eastern	-10.8574
▁ultimate	-10.8576
▁43	-10.8577
▁Ann	-10.8587
▁Jura	-10.8588
ough	-10.8588
▁mode	-10.859
▁Capital	-10.8593
▁volcan	-10.86
▁plural	-10.8607
▁arrangement	-10.8609
▁tehsil	-10.8609
abad	-10.8614
▁pool	-10.8631
ni	-10.8652
▁Hercules	-10.8658
▁Napoleon	-10.8659
ily	-10.8659
▁screen	-10.866
▁License	-10.8661
▁mineral	-10.8662
▁codes	-10.8677
▁react	-10.8685
ite	-10.8689
ten	-10.8695
▁walk	-10.8695
▁expedition	-10.8696
▁analog	-10.8696
▁Hampshire	-10.8697
▁Corps	-10.8698
▁Amazon	-10.87
▁introduction	-10.8703
▁Margaret	-10.8706
▁Agency	-10.8708
▁Dave	-10.8712
▁Arm	-10.872
▁server	-10.872
▁schedule	-10.8724
▁Romans	-10.8727
▁DC	-10.8731
▁Sri	-10.8735
▁planets	-10.8735
▁Roosevelt	-10.8742
▁steam	-10.8748
▁1860	-10.8751
▁regularly	-10.8754
▁1857	-10.8759
▁Duch	-10.876
▁Drama	-10.8767
▁Las	-10.8768
▁drawn	-10.8774
▁refused	-10.8776
▁tip	-10.878
▁Democrat	-10.8785
▁telephone	-10.8785
▁Brooklyn	-10.8789
▁Sindh	-10.8802
Due	-10.8806
▁Carlos	-10.8812
▁seed	-10.8816
▁Da	-10.8816
Over	-10.8822
▁1882	-10.8826
▁Emmy	-10.8829
▁Sh	-10.8831
▁Anti	-10.8832
▁horror	-10.8833
▁recognize	-10.8834
▁vocal	-10.8836
▁establishment	-10.8841
▁Books	-10.8842
▁Lu	-10.8852
▁Ken	-10.8854
▁pole	-10.8856
▁movements	-10.8867
wards	-10.8871
▁trace	-10.8873
▁fundamental	-10.8873
▁tunnel	-10.8875
▁gene	-10.8876
▁cultures	-10.8879
▁Giovanni	-10.8887
▁Not	-10.8895
▁factor	-10.8896
▁Urban	-10.8898
▁Lost	-10.8913
▁scholars	-10.8914
martial	-10.892
▁Field	-10.8921
▁acclaim	-10.8922
ah	-10.8922
▁Jay	-10.8922
▁scholar	-10.8923
▁personality	-10.8928
▁Minor	-10.8934
▁premier	-10.8938
wide	-10.895
▁drivers	-10.8956
▁Rolling	-10.8956
▁views	-10.8959
oxide	-10.8959
▁physician	-10.8964
▁dangerous	-10.8965
▁tag	-10.8965
▁chair	-10.8966
▁favorite	-10.8966
▁95	-10.897
▁neck	-10.8972
▁soap	-10.8978
▁visitor	-10.8979
▁66	-10.8979
▁virus	-10.898
Found	-10.8983
▁publication	-10.8983
That	-10.8993
▁offices	-10.9
▁Te	-10.9003
▁promot	-10.9006
▁thirty	-10.9009
▁Six	-10.9011
▁und	-10.9013
▁WCW	-10.9015
▁stable	-10.9015
▁Stewart	-10.9018
▁Zeus	-10.9022
▁Original	-10.9027
▁Ana	-10.9029
▁resemble	-10.9031
▁Sub	-10.9033
▁storie	-10.9036
ini	-10.9044
▁Malaysia	-10.9045
▁2.5	-10.9048
ha	-10.9053
▁currenc	-10.9054
▁monaster	-10.9055
▁FIA	-10.9056
▁Mozart	-10.9059
▁drawing	-10.9064
▁Gordon	-10.907
▁1800	-10.9072
▁components	-10.9072
▁quarter	-10.9074
▁Later	-10.9082
▁dimension	-10.9082
▁girls	-10.9083
▁generate	-10.9084
European	-10.9086
▁Oak	-10.9088
▁transform	-10.9089
▁argu	-10.9092
Both	-10.91
▁spacecraft	-10.9101
▁Horse	-10.9102
im	-10.9105
▁Amsterdam	-10.9105
▁Wii	-10.9108
▁injury	-10.9109
gun	-10.9113
▁Spring	-10.9114
▁1867	-10.9119
▁standards	-10.9121
▁safe	-10.9121
▁wings	-10.9122
▁Place	-10.9123
ting	-10.913
▁Anglican	-10.9132
▁Sport	-10.9133
▁Norman	-10.9135
▁Our	-10.9142
▁adults	-10.9145
▁sculpture	-10.9145
▁dress	-10.9146
▁Maryland	-10.9147
▁specimen	-10.9147
▁beautiful	-10.9148
▁Spirit	-10.9148
▁fan	-10.915
▁dragon	-10.9151
▁Health	-10.9151
▁Tuscany	-10.9154
▁orders	-10.9155
▁1.5	-10.9155
li	-10.9159
▁Homo	-10.9167
over	-10.9168
▁evening	-10.9169
▁bomb	-10.917
▁custom	-10.9171
Of	-10.9172
style	-10.9174
▁Race	-10.9181
Along	-10.9183
▁supporter	-10.9186
▁Blood	-10.9193
▁criminal	-10.9194
▁easy	-10.9195
▁really	-10.9195
▁conquest	-10.9197
▁Gothic	-10.9207
ess	-10.921
▁Bouche	-10.9213
January	-10.9226
▁1861	-10.923
▁assum	-10.9239
▁dialect	-10.9239
▁reserve	-10.9241
▁apply	-10.9243
▁baby	-10.9243
▁calls	-10.9244
▁Soul	-10.9249
▁altitude	-10.9249
▁convict	-10.925
▁commander	-10.9267
▁pain	-10.9268
▁preserve	-10.9274
▁Hamburg	-10.9275
▁Oliver	-10.9281
▁verse	-10.9282
▁Luis	-10.9282
il	-10.9286
▁dwarf	-10.9286
▁Youth	-10.9286
▁Hotel	-10.929
▁collective	-10.9291
▁administer	-10.9301
▁bits	-10.9302
▁Franz	-10.9302
▁practical	-10.9302
▁rope	-10.9304
▁Boys	-10.9309
hood	-10.9309
▁Nation	-10.931
▁damaged	-10.9317
▁comment	-10.9323
▁Nick	-10.933
▁feel	-10.9331
▁accompani	-10.9332
▁educational	-10.9332
▁defensive	-10.9334
▁backing	-10.9339
▁saint	-10.9342
▁guide	-10.9346
war	-10.9352
▁disc	-10.9356
▁Gustav	-10.9356
▁1830	-10.9365
Thomas	-10.9369
▁Ludwig	-10.9369
▁Arabia	-10.9372
▁Batist	-10.9372
▁texts	-10.9374
▁Jon	-10.9379
▁wish	-10.9383
▁Marc	-10.9383
▁destination	-10.9386
▁Ni	-10.9388
▁Arena	-10.9389
▁Brabant	-10.9389
▁Knight	-10.9402
ight	-10.9403
▁10,000	-10.9406
▁Kevin	-10.9409
ything	-10.9415
▁autonomous	-10.9419
▁tram	-10.9426
▁imprison	-10.9428
▁amateur	-10.9428
▁Woman	-10.9429
▁descendant	-10.9429
io	-10.943
▁Frankfurt	-10.943
▁McMahon	-10.9431
▁Venice	-10.9431
▁1897	-10.9435
▁Gar	-10.9437
▁Ernst	-10.9441
▁Kurt	-10.9447
▁Rico	-10.9447
▁USD	-10.9448
▁Part	-10.9449
▁Percy	-10.945
▁Only	-10.9463
largest	-10.9464
▁Chapel	-10.9469
▁fifteen	-10.9476
▁residence	-10.9477
▁NBC	-10.9478
▁controversial	-10.9479
▁Buddhist	-10.9479
▁conservative	-10.9479
▁phone	-10.948
▁Yellow	-10.9482
▁hero	-10.9483
▁Guide	-10.9487
▁plain	-10.9488
▁finding	-10.9489
▁driv	-10.9491
▁Range	-10.9492
▁cream	-10.9494
▁120	-10.9494
▁fur	-10.9497
go	-10.9499
▁bone	-10.9499
▁seal	-10.95
▁cancel	-10.9502
ke	-10.9503
▁diplomat	-10.9507
▁bones	-10.951
Henry	-10.9512
▁fossils	-10.9516
▁boat	-10.9517
▁Fall	-10.9521
▁Basketball	-10.9524
▁Indus	-10.9529
▁Miss	-10.953
▁lift	-10.9535
istic	-10.9536
▁releases	-10.9539
▁partly	-10.954
▁Si	-10.9544
▁Page	-10.9548
▁Lo	-10.9548
bert	-10.9549
▁elect	-10.9553
▁Southeast	-10.9558
▁Ro	-10.956
▁deposit	-10.9568
▁threat	-10.9568
▁attempts	-10.9573
▁Gray	-10.9576
▁stored	-10.9577
▁manner	-10.9577
▁gravity	-10.9577
▁sovereign	-10.9578
▁Costa	-10.9579
▁Madison	-10.9582
▁doing	-10.9586
▁Kei	-10.9589
▁Key	-10.9591
▁Isle	-10.9592
▁Trek	-10.9594
▁boys	-10.96
turned	-10.9601
standing	-10.9603
xternal	-10.9605
ell	-10.9609
▁Slovakia	-10.9609
▁faith	-10.9612
▁Shadow	-10.9624
▁browser	-10.9624
▁Renault	-10.9624
▁1887	-10.9625
▁statue	-10.9627
▁cake	-10.9627
▁violence	-10.963
▁automatic	-10.9637
No	-10.9647
▁Senator	-10.9647
gate	-10.9649
▁prove	-10.9658
▁committee	-10.9669
▁passage	-10.9671
▁evil	-10.9673
▁Blues	-10.9675
▁assist	-10.9684
ster	-10.9684
énée	-10.9689
▁retrogr	-10.9692
▁UN	-10.9699
star	-10.9709
▁Baby	-10.9713
▁Short	-10.9714
▁bread	-10.9715
ensis	-10.9716
▁choir	-10.9717
▁employee	-10.972
▁marks	-10.9721
trophy	-10.9721
▁estate	-10.9723
▁vector	-10.9724
selling	-10.9725
▁Augustus	-10.9729
▁artistic	-10.9736
▁notice	-10.9738
▁encounter	-10.9741
▁Natural	-10.9749
▁happens	-10.9753
▁factors	-10.9758
▁Buffalo	-10.9767
▁Sony	-10.9769
▁Utah	-10.9769
▁CBS	-10.977
▁agricultural	-10.9772
▁domain	-10.9773
▁frequency	-10.9783
▁scor	-10.9784
▁accounts	-10.9788
2004/	-10.979
mer	-10.9791
▁Arnold	-10.9792
▁lime	-10.9803
▁frame	-10.9806
▁Lithuania	-10.9808
▁load	-10.981
▁phase	-10.9812
▁Mrs	-10.9812
km	-10.9813
▁turns	-10.9816
▁Edition	-10.9817
▁documentary	-10.9818
▁moral	-10.9821
▁chromosome	-10.9822
▁Northwest	-10.9827
▁rotation	-10.9828
▁playoffs	-10.983
▁virtual	-10.9838
▁counter	-10.9842
▁Edmund	-10.9852
▁Core	-10.9852
▁acquir	-10.9854
▁Sky	-10.9854
▁serial	-10.9858
▁writings	-10.9859
▁ill	-10.9863
▁Motor	-10.9865
▁Mali	-10.9866
▁Ukrainian	-10.9867
▁birthday	-10.9868
categories	-10.9871
▁SI	-10.9872
▁Jerry	-10.9879
▁span	-10.9886
▁pit	-10.989
▁47	-10.989
▁stages	-10.9892
▁heir	-10.9893
▁filled	-10.9896
▁export	-10.9904
About	-10.9907
tan	-10.9907
dale	-10.9909
▁41	-10.991
▁Luxembourg	-10.9913
▁elephant	-10.9915
▁Dakota	-10.9915
▁penis	-10.9916
▁1885	-10.9917
▁Technology	-10.9917
▁discussion	-10.9919
▁subdivided	-10.9919
▁Ed	-10.992
▁purchase	-10.992
ois	-10.992
▁Software	-10.9922
▁divid	-10.9923
▁emergency	-10.9923
▁Stuart	-10.9924
▁Scout	-10.9925
▁Holland	-10.9929
▁audio	-10.9929
▁Nelson	-10.9929
▁imperial	-10.993
▁Girls	-10.9939
▁Report	-10.9945
▁lists	-10.9945
▁Alan	-10.9956
▁Canton	-10.9958
▁Avenue	-10.9965
▁Oregon	-10.9965
▁decay	-10.9967
▁ninth	-10.9968
▁drugs	-10.997
▁Circle	-10.997
▁Thames	-10.9974
▁option	-10.9974
gone	-10.9975
▁Julius	-10.9978
▁Jo	-10.9986
▁Nova	-10.9988
ldest	-10.9995
▁contribut	-10.9999
ron	-11.0003
▁sung	-11.0004
▁1881	-11.0007
▁600	-11.0008
olithic	-11.0012
▁mechanism	-11.0016
▁entrance	-11.0016
▁mainstream	-11.0018
▁interaction	-11.0018
▁joins	-11.0022
▁le	-11.0024
▁Tasmania	-11.0026
▁strongly	-11.0026
▁1894	-11.0026
▁historically	-11.003
▁Grey	-11.0038
▁Card	-11.0039
allest	-11.0043
▁fat	-11.0046
▁component	-11.0046
▁Ash	-11.0047
▁Col	-11.0051
▁corner	-11.0053
▁plus	-11.0053
▁Th	-11.0054
▁sounds	-11.0058
play	-11.0061
ett	-11.0063
▁Jacques	-11.0063
▁taste	-11.0064
▁agriculture	-11.0066
▁vessel	-11.0066
▁ballet	-11.007
▁Abu	-11.0073
called	-11.008
▁Front	-11.0081
ball	-11.0083
▁Forbes	-11.0084
▁observations	-11.0087
what	-11.0089
▁Otto	-11.0094
▁subsidiar	-11.0095
▁alcohol	-11.0095
▁automobile	-11.0098
▁Simpsons	-11.0101
cher	-11.0103
be	-11.0103
▁Leo	-11.0105
▁Ice	-11.0108
April	-11.0111
▁z	-11.0115
▁wheel	-11.0118
▁Java	-11.0119
▁discuss	-11.0119
▁Venezuela	-11.012
▁Encyclopedia	-11.012
▁kg	-11.0122
▁Stock	-11.0125
▁dominant	-11.0126
▁noble	-11.0127
▁FRS	-11.0129
▁step	-11.013
▁lifetime	-11.0131
▁pump	-11.0132
base	-11.0136
▁Councils	-11.0155
▁á	-11.0156
▁Mass	-11.0156
shap	-11.016
ana	-11.0166
▁extent	-11.0167
▁Harvard	-11.0169
▁Suffolk	-11.0172
▁proclaim	-11.0172
▁Giant	-11.0175
▁Jimmy	-11.0177
▁cache	-11.0178
▁Der	-11.0178
▁46	-11.0182
▁vision	-11.0193
▁random	-11.0195
▁Croatia	-11.0208
za	-11.0209
che	-11.021
▁Pier	-11.0215
▁smooth	-11.0218
Nuremberg	-11.0219
▁Mongol	-11.0219
▁Metro	-11.0219
▁worst	-11.022
▁everything	-11.022
▁nothing	-11.0221
▁Thuringia	-11.0221
▁identical	-11.0224
▁Culture	-11.0225
▁Energy	-11.0226
▁Nile	-11.0227
▁GP	-11.0227
▁depth	-11.0227
expensive	-11.0228
▁clothes	-11.0228
ger	-11.0231
▁chemist	-11.0237
▁symphon	-11.024
▁logo	-11.0245
Up	-11.0249
▁entitl	-11.0249
▁Alp	-11.025
▁signature	-11.0255
art	-11.0256
▁ratio	-11.0257
▁Inter	-11.0259
▁Stars	-11.0262
▁maker	-11.0266
▁neighborhood	-11.027
▁elevation	-11.0271
▁worth	-11.0271
▁Am	-11.0272
▁elder	-11.0273
▁hole	-11.0274
▁fastest	-11.0276
▁Israeli	-11.0276
▁NASA	-11.0277
▁oversea	-11.0277
ker	-11.0284
▁artificial	-11.0286
rich	-11.0286
▁Oscar	-11.0294
▁wait	-11.0299
▁scales	-11.03
▁1878	-11.03
▁Name	-11.0304
▁environmental	-11.0308
▁duo	-11.0309
▁divisions	-11.0312
▁54	-11.0314
▁plate	-11.0316
ny	-11.0318
▁Leed	-11.0318
▁absence	-11.0322
▁dancing	-11.0323
▁Castile	-11.0323
▁Labour	-11.0325
▁Ltd	-11.0326
▁Saudi	-11.0327
▁caught	-11.0327
▁portrait	-11.0328
ul	-11.0329
▁Derby	-11.0329
▁horizontal	-11.0341
▁responsibilit	-11.0344
▁Eve	-11.0354
▁Ram	-11.0359
▁soldier	-11.0364
▁Biography	-11.0368
▁Building	-11.037
▁destruction	-11.0374
▁alliance	-11.0374
▁Buddhism	-11.0374
▁shelter	-11.0374
▁Naples	-11.0375
▁Thursday	-11.0376
▁merchant	-11.0376
▁molecular	-11.0377
▁replacement	-11.0377
▁Marco	-11.0382
▁Thompson	-11.0384
▁na	-11.0384
0,000	-11.0386
▁Suce	-11.0395
▁bell	-11.0398
▁Georg	-11.0403
▁editors	-11.0404
▁Lion	-11.0406
▁controversy	-11.0426
▁opinion	-11.0426
▁publisher	-11.0428
▁mix	-11.0429
▁operator	-11.043
▁loop	-11.0431
▁junior	-11.0431
▁traditions	-11.0433
▁representation	-11.0437
▁calling	-11.044
▁Online	-11.0443
▁mile	-11.0447
▁Dean	-11.0449
law	-11.0451
▁Grove	-11.0459
▁cone	-11.0462
▁spirit	-11.0469
▁liberal	-11.0469
▁factory	-11.0471
▁Tale	-11.0472
▁spann	-11.0475
▁Snow	-11.0476
▁cattle	-11.0479
▁reputation	-11.0479
▁Vendée	-11.0479
▁72	-11.048
▁Heaven	-11.0481
▁consecutive	-11.0481
▁interface	-11.0482
▁tongue	-11.0483
▁cease	-11.0483
▁fear	-11.0483
▁Observato	-11.0483
▁electromagnet	-11.0485
▁Military	-11.0491
▁Baker	-11.0498
Star	-11.0499
▁Ronald	-11.0506
▁Atlantique	-11.0513
▁Gabriel	-11.0522
▁draw	-11.0523
▁populat	-11.0523
▁Palm	-11.0526
▁simp	-11.0529
▁editing	-11.053
world	-11.0531
▁Era	-11.0531
▁sudden	-11.0532
▁subspecies	-11.0532
▁reproduction	-11.0532
▁specializ	-11.0532
▁Newfoundland	-11.0533
▁clay	-11.0535
▁hunting	-11.0536
▁Wright	-11.0537
row	-11.0541
▁Village	-11.0542
▁Guerrero	-11.0543
▁Croatian	-11.0548
▁educat	-11.055
ko	-11.0558
▁predict	-11.0561
▁Advance	-11.0564
▁exclusively	-11.0564
ts	-11.0565
ira	-11.0568
▁internationally	-11.057
▁Harris	-11.057
▁charter	-11.0572
37	-11.0583
▁Hemisphere	-11.0585
▁rapper	-11.0585
▁Rumbl	-11.0586
▁athletic	-11.0586
▁desktop	-11.0586
▁Reserve	-11.0588
▁alternate	-11.0589
▁Knowles	-11.0591
▁establishe	-11.0595
▁chloride	-11.06
▁Lieutenant	-11.0601
▁Code	-11.0605
▁Pe	-11.0605
▁highway	-11.0606
▁Del	-11.0607
▁forecast	-11.0607
▁1886	-11.0612
▁struggle	-11.0613
▁1,000	-11.0618
▁abuse	-11.0627
▁tries	-11.0634
wall	-11.0636
▁characteristic	-11.0637
▁neighbour	-11.0638
▁Prefecture	-11.0638
▁ticket	-11.0639
▁hemisphere	-11.0639
▁UNESCO	-11.0639
▁Stockholm	-11.0639
▁societies	-11.0639
▁progressive	-11.064
▁Cretaceous	-11.064
▁encyclopedia	-11.0641
▁economics	-11.0641
▁Buffy	-11.0643
▁originate	-11.0645
▁optical	-11.0645
▁Luke	-11.0646
▁Edge	-11.0651
▁thermal	-11.0653
▁landscape	-11.0655
▁Ho	-11.0661
▁lens	-11.0662
▁files	-11.0666
▁1876	-11.0674
▁essay	-11.0694
▁cult	-11.0694
▁Camp	-11.0699
▁Grace	-11.0702
▁Herbert	-11.0709
pa	-11.0711
TV	-11.0711
▁dish	-11.0712
▁rear	-11.0713
▁distinctive	-11.0715
ol	-11.0717
Once	-11.0719
▁leg	-11.0734
▁nervo	-11.0737
▁understanding	-11.0744
▁prov	-11.0746
▁Sussex	-11.0746
▁argument	-11.0747
First	-11.0748
▁vast	-11.0748
▁variable	-11.0748
spring	-11.0748
▁Liberal	-11.0749
▁enemy	-11.075
▁carbonate	-11.0764
▁Jonathan	-11.0773
▁Victor	-11.0774
wing	-11.0779
▁Trade	-11.0784
▁persons	-11.0788
▁tenth	-11.0792
▁lie	-11.0793
▁Ivan	-11.0794
▁Gr	-11.0796
▁administrator	-11.0801
▁Fantasy	-11.0802
dorf	-11.0802
▁Number	-11.0804
▁arrival	-11.0806
▁Dallas	-11.0807
▁Leipzig	-11.0807
▁armies	-11.0807
▁dramatic	-11.0809
▁actors	-11.0809
▁1877	-11.0809
Sometime	-11.081
▁wooden	-11.081
▁Tibetan	-11.0812
▁canon	-11.0813
▁Chase	-11.0816
ale	-11.0818
▁vary	-11.082
▁bubble	-11.0821
▁Donald	-11.0822
▁organize	-11.0824
▁networks	-11.0828
▁none	-11.0835
Z	-11.0847
▁divorce	-11.0851
▁Rights	-11.0854
▁recipe	-11.0855
▁legislature	-11.0855
▁blind	-11.0856
▁compilation	-11.0856
;	-11.0858
▁roof	-11.0858
▁Columbus	-11.086
▁ABC	-11.0862
net	-11.0864
▁Vince	-11.0866
▁origins	-11.0874
▁Sonic	-11.0875
ably	-11.0885
▁exclusive	-11.0887
▁Persia	-11.0901
▁window	-11.091
▁predominant	-11.0911
ducted	-11.0914
▁exhibition	-11.0914
ella	-11.0916
▁Administration	-11.0916
▁mental	-11.0918
▁patterns	-11.0919
▁authors	-11.0923
▁Mercury	-11.093
▁Fi	-11.0937
▁fertil	-11.0946
▁modifi	-11.0956
▁invit	-11.0957
▁sole	-11.0957
night	-11.0958
▁Wayne	-11.0959
▁recommend	-11.0964
▁remnant	-11.0965
▁substantial	-11.0967
▁symbols	-11.0969
February	-11.0969
▁adja	-11.097
▁Against	-11.0971
▁door	-11.0973
▁businessman	-11.0976
bridge	-11.0976
▁Aires	-11.0977
▁dot	-11.0979
bit	-11.0987
ak	-11.0991
▁USB	-11.0991
▁1862	-11.0995
▁Apollo	-11.1
▁dissolv	-11.1006
od	-11.1009
▁Nazis	-11.1011
person	-11.1012
lived	-11.1016
▁Cemeter	-11.1021
▁absolute	-11.1022
▁theorem	-11.1022
▁1863	-11.1023
▁weapon	-11.1024
▁poison	-11.1024
▁resolution	-11.1025
▁lose	-11.1025
▁streets	-11.103
▁distinction	-11.103
▁1874	-11.1033
▁interior	-11.1033
▁fleet	-11.1034
▁sum	-11.1034
uenos	-11.1041
▁spice	-11.1041
▁Che	-11.1041
▁Gregory	-11.1043
▁mount	-11.1044
▁pen	-11.1044
▁prefecture	-11.1044
▁quick	-11.1049
▁attain	-11.1049
▁IP	-11.1054
▁roads	-11.1055
▁crossed	-11.1064
▁130	-11.1066
▁Are	-11.1068
cation	-11.1069
▁rulers	-11.1073
▁extract	-11.1074
▁coalition	-11.1077
▁wants	-11.1077
▁Volkswagen	-11.1077
▁Pepper	-11.1079
▁gang	-11.1079
▁disappear	-11.1082
body	-11.1083
▁doctrine	-11.1085
▁vice	-11.1085
▁Yugoslavia	-11.1086
▁loan	-11.1086
▁Pre	-11.1091
▁Rand	-11.1096
▁renowned	-11.1097
▁Physiolog	-11.1099
▁happen	-11.111
▁Ph	-11.111
▁Chamber	-11.1112
rmed	-11.1116
May	-11.1117
▁chapel	-11.1121
▁Salzburg	-11.1128
▁policies	-11.1133
▁convection	-11.1133
▁intelligence	-11.1134
▁Sierra	-11.1134
▁database	-11.1135
▁Tampa	-11.1137
▁Comedy	-11.1139
▁Archbishop	-11.1139
▁1888	-11.114
▁controller	-11.114
Thus	-11.1141
ring	-11.1143
▁emerged	-11.1143
▁jaw	-11.1145
▁liver	-11.1145
▁Computer	-11.1146
▁conventional	-11.1149
▁Aberdeen	-11.115
▁Deep	-11.1155
▁AC	-11.1164
▁ideal	-11.1165
▁Comics	-11.1165
ated	-11.1167
▁ingredients	-11.1168
▁afterward	-11.117
▁Lane	-11.117
▁grows	-11.1173
j	-11.1175
▁Bulgaria	-11.1182
▁Nature	-11.119
▁Dublin	-11.1191
▁toxic	-11.1191
▁signals	-11.1191
▁subfamil	-11.1192
▁thing	-11.1192
▁Berkeley	-11.1193
▁suicide	-11.1193
▁Cabinet	-11.1194
▁abolish	-11.1194
September	-11.1196
rself	-11.1196
▁Victorian	-11.1197
Pierre	-11.1198
▁merger	-11.12
▁Bern	-11.1201
▁check	-11.1201
▁Serbian	-11.1207
▁romantic	-11.1208
▁Kane	-11.1209
▁notation	-11.1213
▁Hope	-11.1214
▁encourage	-11.1216
▁56	-11.1217
▁exercise	-11.122
▁ranking	-11.1224
▁zoo	-11.1229
Rise	-11.124
▁Khyber	-11.1246
▁irregular	-11.1246
▁illegal	-11.1247
▁sitcom	-11.1248
▁crossing	-11.1248
▁Movement	-11.1248
Statistical	-11.1249
▁Petersburg	-11.125
▁combat	-11.1251
▁session	-11.1254
▁800	-11.1255
▁apple	-11.1256
▁committ	-11.1256
▁Bundeslig	-11.1261
▁parks	-11.1262
master	-11.1262
▁sure	-11.1266
▁proof	-11.1271
▁Colombia	-11.1276
▁Gilbert	-11.1278
ontinental	-11.128
▁1848	-11.1287
▁Barry	-11.1288
ories	-11.1291
wich	-11.1295
▁championships	-11.1297
▁pope	-11.1299
▁polar	-11.1301
▁parameter	-11.1305
▁Beijing	-11.1305
▁sediment	-11.1305
▁Literature	-11.1306
▁Prague	-11.1306
▁Mouse	-11.1306
▁prophet	-11.1307
▁pocket	-11.1307
▁Left	-11.1308
▁Warsaw	-11.1308
▁Globe	-11.1311
▁disorder	-11.1312
▁settler	-11.1315
▁surrender	-11.1318
▁generations	-11.1319
▁Maine	-11.132
▁golden	-11.1322
▁Venus	-11.1324
▁designs	-11.1329
▁Player	-11.1333
▁Whedon	-11.1334
▁gases	-11.1339
▁Jacob	-11.134
▁archive	-11.1342
▁Auto	-11.1344
air	-11.1346
▁exhibit	-11.1353
▁Marine	-11.1354
▁incorporate	-11.1354
▁councils	-11.1354
▁basin	-11.136
▁wrong	-11.136
▁Sultan	-11.1362
▁Transport	-11.1363
▁constituency	-11.1364
▁Panama	-11.1366
▁Viking	-11.1368
heard	-11.1368
▁animation	-11.1369
▁dri	-11.137
▁desire	-11.1374
▁populations	-11.1377
▁Color	-11.1379
▁sword	-11.1381
▁grounds	-11.1384
ica	-11.1401
▁march	-11.1403
▁Terr	-11.1407
▁Springs	-11.1408
▁weigh	-11.141
ecame	-11.141
▁Steven	-11.1412
ogether	-11.1412
▁des	-11.1414
▁Economic	-11.1418
▁widow	-11.1419
▁Orleans	-11.1422
▁marry	-11.1422
▁bronze	-11.1422
▁sodium	-11.1422
▁Hume	-11.1426
▁foods	-11.1427
▁chapter	-11.143
▁Representatives	-11.1431
▁Professional	-11.1434
▁associate	-11.144
▁advisor	-11.1442
▁mo	-11.1443
▁participate	-11.1446
▁1850	-11.145
▁Campbell	-11.1451
▁symptoms	-11.1452
▁false	-11.1453
▁declare	-11.1457
▁Brad	-11.1463
▁fit	-11.1464
▁Ki	-11.1467
hall	-11.1471
▁rice	-11.1472
▁Guy	-11.1472
▁clean	-11.1473
▁Ron	-11.1476
▁Forces	-11.1477
▁structural	-11.1478
▁Robin	-11.1478
▁Sicily	-11.1479
▁Manitoba	-11.1479
2006/	-11.1479
▁Get	-11.148
▁pale	-11.1484
▁feeling	-11.1485
▁Leonese	-11.1491
▁Nuclear	-11.1494
▁53	-11.1496
▁Pr	-11.1501
▁delay	-11.1502
▁sale	-11.1504
▁grandson	-11.1505
▁shall	-11.1505
sville	-11.1506
▁injured	-11.1507
▁1883	-11.1511
▁Falls	-11.1513
▁experiments	-11.1515
▁Rick	-11.1516
▁49	-11.1523
▁beaut	-11.1523
▁Blackhawks	-11.1535
▁retirement	-11.1536
▁sheep	-11.1536
▁Design	-11.1537
▁identify	-11.1537
▁Brandenburg	-11.1537
▁melt	-11.1539
▁till	-11.154
▁Prades	-11.154
▁Maple	-11.1542
▁Sometime	-11.1543
▁Sheffield	-11.1545
Biography	-11.1545
▁intense	-11.1548
▁Cameron	-11.1552
▁Regional	-11.1554
▁Bud	-11.1563
idden	-11.1563
▁teach	-11.1566
▁Productions	-11.1566
▁carrying	-11.1566
tis	-11.1572
▁Now	-11.1585
▁incident	-11.1588
▁affairs	-11.1592
▁themes	-11.1594
▁Dick	-11.1594
▁Intelligence	-11.1594
▁immigrant	-11.1595
▁UTC	-11.1596
▁Tuesday	-11.1597
▁constitutional	-11.1598
Peter	-11.16
▁violent	-11.1602
▁1852	-11.1602
xistence	-11.1603
knew	-11.1606
▁1840	-11.1613
▁Michaels	-11.1614
▁messages	-11.1614
▁Lucy	-11.1614
▁diet	-11.1618
▁dies	-11.1625
kwal	-11.1629
▁Franco	-11.1636
▁Wolf	-11.1639
▁magic	-11.164
▁Lanka	-11.1643
olj	-11.1645
ino	-11.1648
▁volcano	-11.1651
See	-11.1652
▁phenomenon	-11.1653
▁integer	-11.1653
▁statistical	-11.1654
▁Never	-11.1654
▁contestant	-11.1656
▁immun	-11.1656
ists	-11.1658
▁Challenge	-11.1658
▁Richmond	-11.1661
▁shar	-11.1663
▁Morgan	-11.1663
▁Trinity	-11.1663
Richard	-11.1664
▁Commander	-11.1665
▁Fr	-11.1667
▁st	-11.1667
▁Eddie	-11.1667
▁decorat	-11.1668
▁occasions	-11.1673
▁attraction	-11.1678
▁Phil	-11.1685
made	-11.1688
▁winners	-11.169
▁Singles	-11.1692
▁advance	-11.1698
bar	-11.1704
▁100,000	-11.1706
▁Shire	-11.1706
August	-11.1708
▁descend	-11.1712
▁minimum	-11.1713
▁offensive	-11.1713
▁weekend	-11.1714
▁Bermuda	-11.1715
hildhood	-11.1715
▁minerals	-11.1715
▁Circuit	-11.1716
▁Nevada	-11.1718
truck	-11.1722
▁balance	-11.1722
December	-11.1725
▁Devon	-11.1726
▁cello	-11.1735
▁hunt	-11.1735
▁Movie	-11.1736
▁Ernest	-11.1738
▁bombing	-11.174
▁argue	-11.1746
▁Flemi	-11.175
▁Val	-11.1764
weight	-11.1764
ji	-11.1772
self	-11.1772
▁Gospel	-11.1773
▁predecessor	-11.1773
▁error	-11.1773
▁vertebrate	-11.1775
▁drives	-11.1776
▁raw	-11.1777
▁Laboratory	-11.1783
▁Simpson	-11.1783
▁jobs	-11.1784
▁Action	-11.1784
video	-11.1786
▁purple	-11.1786
ocated	-11.1787
▁Abraham	-11.1787
▁winger	-11.179
▁Studio	-11.1793
▁gift	-11.1794
▁supposed	-11.1803
▁harm	-11.1804
▁continuous	-11.1807
2007/	-11.1807
▁mice	-11.181
state	-11.1813
▁presenter	-11.1815
▁Universe	-11.1819
▁butter	-11.1829
▁gate	-11.1829
▁millenni	-11.1833
▁fifty	-11.1834
▁Soccer	-11.1834
▁pronunciation	-11.1834
dia	-11.1835
▁justice	-11.1836
▁eruption	-11.1836
port	-11.1836
▁Tiger	-11.1838
car	-11.1839
▁1859	-11.184
▁1872	-11.184
▁Members	-11.1841
▁Newton	-11.1842
▁prepared	-11.1843
▁Claudi	-11.1844
▁Charlie	-11.1844
▁Heinrich	-11.1845
▁skater	-11.1846
▁Santo	-11.1849
▁Murray	-11.1853
▁quantity	-11.1853
▁latest	-11.1857
▁task	-11.1857
drew	-11.1858
▁stat	-11.1865
▁Season	-11.187
▁Ge	-11.1873
ions	-11.1877
▁Leader	-11.1879
2008	-11.1883
▁expos	-11.1885
▁net	-11.1888
top	-11.189
▁strict	-11.1893
▁Authority	-11.1894
▁radical	-11.1895
▁servant	-11.1897
feld	-11.1899
▁everyone	-11.1899
▁Hard	-11.1902
▁Studies	-11.1903
▁Slav	-11.1914
July	-11.1914
▁daughters	-11.1918
▁Vincent	-11.1918
▁crowd	-11.1924
▁corresponding	-11.1937
▁reward	-11.1939
lying	-11.1939
hara	-11.1943
▁José	-11.1943
▁Planet	-11.1944
▁Mad	-11.1953
▁biologist	-11.1955
▁Slovak	-11.1956
▁scatter	-11.1957
▁appropriate	-11.1958
▁Baltic	-11.196
▁Information	-11.1962
▁sector	-11.1962
▁Limited	-11.1962
▁85	-11.1964
▁Greatest	-11.1968
Joseph	-11.197
▁Ham	-11.1972
▁Piper	-11.1973
▁Pa	-11.1975
▁Ravens	-11.1978
sky	-11.1981
▁Album	-11.1983
▁courts	-11.1983
▁5,000	-11.1985
shi	-11.1999
▁companion	-11.2003
▁references	-11.2006
▁sheet	-11.2011
▁shoot	-11.2011
▁coins	-11.2012
▁potassium	-11.2016
▁skull	-11.2016
▁precise	-11.2017
▁binary	-11.2017
▁housing	-11.2017
▁Trust	-11.2017
▁Mosque	-11.2019
▁terminal	-11.2019
▁Alex	-11.202
▁Pass	-11.202
▁pink	-11.202
▁diverse	-11.2022
▁Santos	-11.2023
▁Independent	-11.2025
Unti	-11.2025
▁shock	-11.2028
▁tape	-11.2028
profit	-11.2029
free	-11.2031
▁loosely	-11.2032
▁Tsar	-11.2033
▁180	-11.2037
▁Santiag	-11.2038
▁citizen	-11.2041
▁Athletic	-11.2042
va	-11.205
tra	-11.2055
▁harvest	-11.2057
▁Kiss	-11.2058
▁locations	-11.206
playing	-11.2061
▁truck	-11.2064
▁Nine	-11.2067
▁Bon	-11.2072
▁suspend	-11.2078
▁preparation	-11.2079
▁Desert	-11.2079
▁respond	-11.2079
▁Hudson	-11.2083
▁inherit	-11.2084
▁Ubuntu	-11.2085
▁Noble	-11.2086
▁understand	-11.2087
▁Isaac	-11.2087
▁concentrate	-11.2092
▁suit	-11.2093
language	-11.2094
▁Morris	-11.2096
▁crimes	-11.21
▁Ryan	-11.2101
▁platinum	-11.2104
▁1866	-11.2105
▁Vegas	-11.2105
▁rubber	-11.2106
▁Classical	-11.2107
▁realize	-11.2112
▁missing	-11.2113
▁Op	-11.2116
▁displayed	-11.212
▁customer	-11.2126
▁testing	-11.2129
▁Nor	-11.2132
itzer	-11.2133
▁pet	-11.2133
▁cemeter	-11.214
▁dream	-11.214
▁hydroxide	-11.214
▁internet	-11.2141
▁Management	-11.2142
▁Debian	-11.2142
▁Ferrari	-11.2144
▁Then	-11.2145
▁Soundgarden	-11.2148
▁alleged	-11.2148
▁Norfolk	-11.215
▁worm	-11.2152
▁Thunder	-11.2154
▁Plan	-11.2157
▁Canal	-11.2161
▁convention	-11.2161
▁52	-11.2164
▁drop	-11.2165
shore	-11.2169
▁naturally	-11.217
▁CH	-11.2171
▁radioactiv	-11.2174
▁quit	-11.2179
▁According	-11.2182
▁rename	-11.2184
▁ride	-11.2189
▁sixteen	-11.2194
▁1873	-11.2195
▁Glen	-11.22
ible	-11.22
▁Dance	-11.2201
▁hub	-11.2202
▁shield	-11.2205
▁Fleet	-11.2207
▁j	-11.2207
▁Medical	-11.2208
Declaration	-11.2209
▁mask	-11.2211
▁Gu	-11.2212
▁claw	-11.2212
▁grandfather	-11.2214
▁Scale	-11.2214
▁Ros	-11.2223
court	-11.2224
hand	-11.2226
IX	-11.2237
▁shoulder	-11.2237
▁cloth	-11.2244
▁Child	-11.2245
▁Francesco	-11.2247
▁varie	-11.2251
▁creatures	-11.2253
▁governments	-11.2256
hausen	-11.2259
▁Also	-11.2259
▁unofficial	-11.2265
▁duties	-11.2265
▁competing	-11.2266
▁camps	-11.2267
▁violinist	-11.2268
▁Lang	-11.2269
▁expect	-11.2269
▁Evil	-11.2269
▁Well	-11.2272
▁Fiction	-11.2272
▁telescope	-11.2272
▁Witch	-11.2274
▁hat	-11.2274
▁1791	-11.2282
▁Notes	-11.2283
October	-11.2284
▁predators	-11.2285
▁73	-11.2287
▁rising	-11.2289
▁characteriz	-11.2291
rez	-11.2298
▁legendar	-11.23
▁anniversar	-11.2302
▁lover	-11.2307
after	-11.2314
▁regime	-11.2317
▁inhabited	-11.2317
ux	-11.2317
▁maps	-11.2318
▁Sega	-11.2321
▁expert	-11.2327
▁appeal	-11.2329
▁massacre	-11.2329
▁guilt	-11.233
▁Undertaker	-11.2332
▁Let	-11.2334
▁trust	-11.2339
▁estimates	-11.2343
▁Sand	-11.2344
▁Officer	-11.2347
Current	-11.2348
▁Arabian	-11.2353
▁arrang	-11.2355
▁cartoon	-11.2361
▁grain	-11.2362
▁geographical	-11.2364
▁900	-11.2369
▁bean	-11.2371
hour	-11.2377
▁Kreis	-11.2377
▁Hull	-11.2379
▁axis	-11.238
▁Poké	-11.2384
burn	-11.2385
▁pin	-11.2385
▁digit	-11.2391
▁manuscript	-11.2392
▁Lebanon	-11.2395
▁Alexandria	-11.2395
▁CBE	-11.2395
Windsor	-11.2396
▁Bel	-11.2396
▁log	-11.2397
▁diseases	-11.2399
▁possess	-11.24
▁noun	-11.2401
▁membership	-11.2402
▁Business	-11.2405
don	-11.2406
▁Run	-11.2406
▁Pearl	-11.2411
Jean	-11.2412
yan	-11.2413
▁corporation	-11.2414
▁ruling	-11.2416
▁Deaths	-11.2417
▁1836	-11.2423
▁lion	-11.2428
▁promise	-11.2429
ually	-11.2431
▁Explorer	-11.2432
▁wire	-11.2443
▁breeding	-11.2445
▁Hell	-11.2449
▁1869	-11.2449
▁erect	-11.2452
▁fighter	-11.2453
▁revolt	-11.2456
▁cabinet	-11.2457
▁monster	-11.2457
▁transmission	-11.2457
▁spectrum	-11.2458
▁simultaneous	-11.2459
ong	-11.246
▁Nickelodeon	-11.246
▁Helen	-11.2462
▁publicly	-11.2471
▁Adolf	-11.2474
▁dissolve	-11.2474
Maurice	-11.2475
▁wet	-11.2478
▁purchas	-11.248
▁gross	-11.2487
▁hire	-11.25
▁hope	-11.25
▁Inca	-11.2509
▁Retrieve	-11.2513
▁survey	-11.2519
▁primitive	-11.2521
▁possibilit	-11.2522
▁ruin	-11.2522
▁supplies	-11.2525
▁Executive	-11.2525
theles	-11.2526
▁progress	-11.2527
▁ge	-11.2533
▁Extreme	-11.2533
▁temperat	-11.2534
▁Hal	-11.2536
▁ov	-11.2539
▁Mu	-11.2541
▁Mill	-11.2541
▁Batman	-11.2542
▁slide	-11.2543
Three	-11.2543
▁Near	-11.2543
ot	-11.2543
▁Barbara	-11.2552
▁frequent	-11.2553
▁Pin	-11.2555
▁Alberta	-11.2561
▁orbital	-11.2568
ice	-11.257
▁Silva	-11.2573
▁ceremoni	-11.2576
▁Kings	-11.2578
▁conservation	-11.2584
▁Cap	-11.2585
▁consequence	-11.2586
▁numeral	-11.2587
▁Thurg	-11.2588
▁Guitar	-11.2589
▁1815	-11.2591
▁voting	-11.2591
▁DJ	-11.2591
▁1824	-11.2592
▁qualify	-11.2592
▁secretary	-11.2594
▁sensor	-11.2594
▁Machine	-11.2595
▁ministr	-11.26
▁approv	-11.2602
▁1849	-11.2604
▁Classic	-11.2605
2005/	-11.2607
▁plates	-11.2608
▁Michell	-11.2611
▁settle	-11.2617
Entry	-11.2618
▁Verde	-11.2618
enburg	-11.262
▁Anderson	-11.262
polis	-11.2621
▁boxer	-11.2623
▁button	-11.2629
▁neutral	-11.263
▁relatives	-11.2632
▁relation	-11.2633
▁victims	-11.2634
four	-11.2635
▁Villa	-11.2636
▁functional	-11.2643
naval	-11.2644
▁variations	-11.2645
▁Systems	-11.2648
▁separat	-11.2649
▁screenwriter	-11.2651
▁constellation	-11.2652
ware	-11.2652
▁birthplace	-11.2652
▁moth	-11.2654
▁Bristol	-11.2657
▁Medici	-11.2663
▁Antille	-11.2668
▁rings	-11.2669
▁Siberia	-11.2671
▁Perth	-11.2672
Louis	-11.2675
▁denote	-11.268
▁mere	-11.2682
▁Smash	-11.2683
▁acoustic	-11.2685
▁74	-11.2686
▁Wiki	-11.2687
▁playwright	-11.2693
▁forty	-11.2694
24	-11.2695
▁Current	-11.2698
16	-11.2698
▁monarchy	-11.2704
▁Here	-11.2705
▁illness	-11.271
▁dust	-11.2711
▁Parker	-11.2711
39	-11.2716
▁topic	-11.2717
▁abbreviation	-11.2717
▁crater	-11.2718
▁spider	-11.2718
▁conclusion	-11.2719
▁trademark	-11.2719
▁transportation	-11.2721
▁1858	-11.2721
▁Jurassic	-11.2722
▁Toyota	-11.2722
▁budget	-11.2722
▁nephew	-11.2723
▁picked	-11.2725
▁variet	-11.2726
▁Anastasia	-11.2726
whil	-11.2727
./	-11.2736
▁Engineering	-11.2737
▁pinn	-11.2741
North	-11.2748
▁experimental	-11.2751
▁ion	-11.2752
▁understo	-11.2757
▁heads	-11.2765
▁165	-11.2771
▁Ga	-11.2773
▁enable	-11.2773
▁synthesis	-11.2774
▁Jamaica	-11.2776
▁demonstrate	-11.2777
▁Avatar	-11.2778
▁enemies	-11.2783
▁Confederation	-11.2784
▁SPD	-11.2785
▁danger	-11.2785
▁blade	-11.2789
▁compact	-11.2792
▁1856	-11.2792
▁Gal	-11.2793
South	-11.2797
▁communist	-11.2798
▁substances	-11.2799
▁nest	-11.2799
▁partially	-11.2802
▁heating	-11.2803
▁latitude	-11.2803
▁Vladimir	-11.2805
▁herita	-11.2806
atic	-11.2808
▁reactions	-11.2809
▁instrumental	-11.2811
▁turning	-11.2811
▁tank	-11.2816
▁theoretical	-11.2819
yone	-11.2823
▁sight	-11.2828
▁breast	-11.2833
▁Wal	-11.2838
▁Ethiopia	-11.2839
▁kings	-11.2839
▁Fred	-11.284
▁generat	-11.2841
▁boil	-11.2845
bourne	-11.2848
▁update	-11.2848
▁Cruz	-11.2848
▁singular	-11.285
▁Surrey	-11.2851
▁Germanic	-11.2852
▁Physics	-11.2852
▁conversion	-11.2852
▁ensure	-11.2854
▁Con	-11.2854
▁possession	-11.2854
▁provincial	-11.2855
ften	-11.2857
▁Tyler	-11.2858
▁probe	-11.2859
▁decrease	-11.286
▁Digital	-11.2864
▁Stand	-11.2864
▁Born	-11.2865
▁probabilit	-11.2866
▁provisional	-11.287
Around	-11.288
▁Swan	-11.2881
▁Rain	-11.2883
Soon	-11.2883
▁facto	-11.2886
▁hid	-11.2887
▁Calvin	-11.289
▁habitat	-11.2893
▁suite	-11.2916
Physical	-11.2917
▁nucleus	-11.2919
▁Review	-11.292
▁layout	-11.2921
▁Mc	-11.2923
▁consumer	-11.2925
▁1789	-11.2925
▁Medieval	-11.2927
▁Religion	-11.2927
▁Min	-11.2936
Life	-11.2936
▁sphere	-11.2939
▁160	-11.2941
▁constitute	-11.2944
term	-11.2945
▁preferr	-11.2945
▁mature	-11.2949
▁Songs	-11.2951
▁feathers	-11.2958
▁astronom	-11.2961
▁sporting	-11.2962
▁offering	-11.2963
owned	-11.2964
▁memorial	-11.2965
▁distribute	-11.2967
ether	-11.2967
▁restor	-11.2973
▁Living	-11.2975
▁volunteer	-11.2984
▁terrestrial	-11.2985
chi	-11.2985
▁silk	-11.2986
▁Grande	-11.2987
▁Ottawa	-11.2988
▁ridge	-11.2991
▁Cyrilli	-11.2991
▁sulfur	-11.2991
▁assassinated	-11.2995
▁Joan	-11.2999
▁indigenous	-11.3
▁Chart	-11.3003
▁stoo	-11.3008
▁boxing	-11.3009
▁tension	-11.3009
length	-11.3013
▁Friends	-11.3013
▁Valencia	-11.3016
▁hyper	-11.3018
▁leaf	-11.3018
▁accus	-11.3021
▁raid	-11.3022
▁graphics	-11.3025
▁Emirates	-11.303
▁permission	-11.3035
sen	-11.3037
▁nomination	-11.3041
▁manga	-11.3042
▁mutual	-11.3045
ara	-11.3051
▁Delhi	-11.3053
▁Nixon	-11.3053
▁philosophical	-11.3054
▁psychology	-11.3054
▁Zoo	-11.3055
▁dozen	-11.3056
▁Esperanto	-11.3056
▁canal	-11.3057
Brighton	-11.3059
entity	-11.3062
▁Eugen	-11.3064
▁follower	-11.3064
uki	-11.3066
▁Wolfgang	-11.3067
▁Far	-11.3068
▁Lucas	-11.3074
▁1871	-11.3075
▁consistent	-11.3079
pool	-11.3082
ISBN	-11.3082
▁Susan	-11.3092
▁jpg	-11.3092
▁suitabl	-11.3094
dimensional	-11.3095
▁Ri	-11.3099
▁1801	-11.3102
▁retail	-11.3105
▁grass	-11.3106
▁larva	-11.3119
ray	-11.3121
▁quarterback	-11.3121
▁Cameroon	-11.3121
▁surname	-11.3121
▁Hainaut	-11.3122
▁Fu	-11.3123
▁RAID	-11.3127
▁storyline	-11.3127
ga	-11.3128
▁Orlando	-11.3128
▁1820	-11.3134
▁cluster	-11.3135
▁assembly	-11.3137
▁environments	-11.314
▁Dar	-11.315
stadt	-11.3153
▁Manuel	-11.3156
▁69	-11.3157
▁McCartney	-11.3158
making	-11.3165
▁Ned	-11.3168
▁bio	-11.3168
▁1837	-11.3169
▁Burma	-11.317
▁agenc	-11.3175
▁1854	-11.3175
▁Hearts	-11.3177
▁Par	-11.3178
▁Neil	-11.3179
▁Johannes	-11.3181
▁Latvia	-11.3183
▁owners	-11.3186
▁remote	-11.319
▁MVP	-11.319
▁spoke	-11.3191
▁sulfate	-11.3191
▁Horton	-11.3191
▁motorway	-11.3192
▁copyright	-11.3193
▁circular	-11.3193
▁relationships	-11.3194
▁Half	-11.3194
▁oxidati	-11.3196
▁industrie	-11.3196
▁nose	-11.3199
▁Atlas	-11.3204
▁Sebastian	-11.3204
▁While	-11.3207
▁Such	-11.3207
▁communications	-11.3207
St	-11.3211
▁familiar	-11.3221
▁trilog	-11.3228
And	-11.3228
▁introduce	-11.323
▁stole	-11.3231
▁Americas	-11.3232
▁Cu	-11.3236
ix	-11.3237
iversity	-11.3239
▁Vale	-11.3241
▁feud	-11.3241
▁Collins	-11.3242
▁Dog	-11.3245
▁Fernand	-11.3246
▁Nigeria	-11.3251
▁champions	-11.3254
▁collision	-11.3259
▁posthumous	-11.3259
▁protagonist	-11.3259
▁hypothesis	-11.326
▁Somerset	-11.3263
▁efficient	-11.3263
▁algae	-11.3264
Historical	-11.3264
Short	-11.3265
▁Gaul	-11.3265
▁Chelsea	-11.3266
▁Pink	-11.3266
▁exit	-11.3266
▁sciences	-11.327
So	-11.3272
▁tune	-11.3273
▁Algeria	-11.3273
▁invad	-11.3276
▁Play	-11.3284
▁Johnn	-11.3284
▁Indonesian	-11.3284
2003/	-11.3292
▁improv	-11.3295
key	-11.3297
▁preced	-11.3299
▁99	-11.3303
▁rifle	-11.3303
▁Pul	-11.3304
▁counted	-11.3307
scale	-11.3308
han	-11.3318
▁Luther	-11.3318
▁Bird	-11.3318
▁ordinar	-11.3322
lles	-11.3326
Roman	-11.3327
▁layers	-11.3328
▁manufacturing	-11.3329
▁siege	-11.3329
▁steps	-11.333
▁outbreak	-11.3331
▁dissipat	-11.3332
▁rebellion	-11.3332
▁efficiency	-11.3332
▁theatrical	-11.3334
▁reef	-11.3334
▁truth	-11.3335
▁radiu	-11.3335
▁researcher	-11.3335
▁shop	-11.3337
▁Alexandra	-11.3343
▁Heath	-11.3345
dmitted	-11.3353
ata	-11.3357
season	-11.3358
▁verb	-11.3358
▁jet	-11.3358
La	-11.3368
▁RC	-11.3369
▁Luck	-11.3371
▁occurr	-11.3371
▁Crusade	-11.3374
Examples	-11.3376
▁attribute	-11.338
▁earning	-11.3382
▁vs	-11.3387
▁Evolution	-11.3388
▁Guard	-11.3393
▁Easter	-11.3394
▁geographic	-11.3396
▁58	-11.3397
▁interpret	-11.3399
▁voyage	-11.34
▁unsuccessful	-11.34
▁monitor	-11.34
▁yield	-11.3401
▁Chairman	-11.3403
▁homes	-11.3405
▁pleasure	-11.3406
▁Gate	-11.3407
▁Vista	-11.3407
▁gauge	-11.3408
▁Freedom	-11.3409
▁77	-11.3411
▁shops	-11.3411
▁Trans	-11.3413
▁Bryan	-11.3413
▁properly	-11.3414
2001/	-11.3414
▁videos	-11.3418
▁sick	-11.3421
▁700	-11.3421
▁Hunt	-11.3422
▁editions	-11.3426
▁1841	-11.3426
▁rises	-11.3426
▁curve	-11.3428
▁experiences	-11.3431
People	-11.3434
▁Allied	-11.3435
▁infect	-11.3438
▁83	-11.3439
▁Jose	-11.3442
ovich	-11.3443
ological	-11.3453
pped	-11.3455
▁indie	-11.3456
▁Wi	-11.3463
▁celebration	-11.3466
▁finance	-11.3466
board	-11.3467
▁genes	-11.3468
▁Mecklenburg	-11.3471
▁Sanskrit	-11.3471
▁abortion	-11.3471
▁velocit	-11.3472
▁Yankee	-11.3472
▁OBE	-11.3472
▁heaven	-11.3472
▁bottle	-11.3473
▁Slayer	-11.3474
▁Fe	-11.3474
▁naming	-11.3478
▁Chilean	-11.3478
▁chord	-11.3479
LS	-11.3482
▁Bu	-11.3484
▁matters	-11.3484
▁Warren	-11.3491
▁lesson	-11.3495
▁1864	-11.3495
▁Pont	-11.3499
illy	-11.3503
▁boot	-11.3507
▁CE	-11.3508
▁farmer	-11.351
▁Mann	-11.3513
▁Test	-11.3514
▁hide	-11.3514
▁viewers	-11.3518
▁religions	-11.3519
▁eclipse	-11.352
▁snake	-11.3523
▁Bond	-11.3524
▁68	-11.3527
down	-11.354
▁Wednesday	-11.3542
▁Himalaya	-11.3543
▁Scala	-11.3543
▁assistance	-11.3545
▁Ke	-11.3545
▁hurricanes	-11.3546
▁Trojan	-11.3546
▁extinction	-11.3548
▁Floyd	-11.3549
aceous	-11.3554
▁horses	-11.3554
Then	-11.3556
▁Article	-11.3557
▁bridges	-11.3557
▁Aragon	-11.3565
▁mantle	-11.3567
▁Speed	-11.357
▁readers	-11.357
▁Theory	-11.357
▁killer	-11.358
▁trio	-11.3596
▁putt	-11.3599
▁Estonia	-11.3604
▁dense	-11.3604
▁Gross	-11.3609
▁Yucat	-11.3612
▁Reagan	-11.3615
▁Devil	-11.3615
▁spiral	-11.3616
▁Gallery	-11.3616
▁investigation	-11.3617
▁Chad	-11.3617
▁prox	-11.3619
▁Honor	-11.362
rose	-11.362
▁investment	-11.3621
ti	-11.3621
▁accurate	-11.3623
▁consumpti	-11.3625
▁Magic	-11.3628
▁Somali	-11.3634
▁Alban	-11.3637
tion	-11.3638
bo	-11.3642
▁metals	-11.3644
▁Ralph	-11.3644
sport	-11.3648
▁Juliet	-11.3648
▁Several	-11.3651
ene	-11.3651
half	-11.3653
▁shade	-11.3653
▁reliabl	-11.3654
▁demo	-11.3655
ow	-11.3656
▁Berg	-11.3656
▁finger	-11.3656
▁Queens	-11.3656
▁è	-11.3659
Theodore	-11.3659
▁grade	-11.3664
89	-11.3664
▁Tibet	-11.3665
98	-11.3665
▁rebel	-11.3665
dvertising	-11.367
ock	-11.3678
▁Bal	-11.3682
Prior	-11.3684
▁jurisdiction	-11.3687
▁Rogers	-11.3687
▁percentage	-11.3688
▁epic	-11.3693
tus	-11.3693
▁Bruins	-11.3693
67	-11.3694
▁Tommy	-11.3699
▁96	-11.3699
▁Ku	-11.3702
▁Fa	-11.3704
▁acquire	-11.3706
▁88	-11.3707
hem	-11.3712
▁icon	-11.3714
▁Births	-11.3714
▁Pete	-11.3715
▁Romance	-11.3716
▁Raymond	-11.372
▁fold	-11.3721
▁denominations	-11.3723
Further	-11.3724
▁Side	-11.3732
▁stripes	-11.3734
kin	-11.3738
▁trans	-11.3743
▁Thai	-11.3744
▁restricted	-11.3747
▁Admiral	-11.3751
▁1884	-11.3752
Edward	-11.3754
▁funeral	-11.3756
▁reptile	-11.3759
▁glacier	-11.376
▁Server	-11.3761
▁Arsenal	-11.3763
▁swimming	-11.3763
▁Watson	-11.3764
▁1853	-11.3765
▁Torre	-11.3765
▁teenager	-11.3766
▁Gim	-11.3769
▁sought	-11.3772
née	-11.3772
▁tone	-11.3776
▁Section	-11.3777
▁minute	-11.3778
▁Carlo	-11.3783
▁Stein	-11.3784
▁shipp	-11.3784
▁Hammer	-11.3787
▁Pedro	-11.379
▁deer	-11.3794
▁Staff	-11.3798
▁Gary	-11.3802
▁Zel	-11.381
▁Weimar	-11.3813
▁dam	-11.3816
▁segment	-11.3818
▁bay	-11.3828
▁moderate	-11.3829
▁cuisine	-11.3833
▁railroad	-11.3833
▁proposal	-11.3834
▁traged	-11.3835
▁Interc	-11.3839
▁Limburg	-11.384
▁Jenn	-11.384
▁Czechoslovakia	-11.3841
▁Flight	-11.3841
▁colloquial	-11.3841
▁advice	-11.3844
▁1846	-11.3846
▁Cornell	-11.3846
▁devote	-11.3852
▁Come	-11.3853
▁commercially	-11.3853
▁Dragon	-11.3854
ted	-11.3863
vision	-11.3865
▁signing	-11.3868
▁Neu	-11.3872
Geography	-11.3874
Additional	-11.3878
▁Table	-11.388
▁Hermann	-11.3883
isation	-11.3884
▁hear	-11.3892
cellular	-11.3897
inho	-11.3897
▁Chevrolet	-11.3907
▁procedure	-11.3907
▁rttemberg	-11.3907
▁cotton	-11.3907
▁syndrome	-11.3907
▁spawn	-11.3907
▁Morocco	-11.3908
▁98	-11.3908
▁theatre	-11.3908
▁CPU	-11.3908
▁headquarter	-11.3909
▁Airways	-11.391
▁Sudan	-11.391
▁presidency	-11.391
▁percussion	-11.3911
▁interrupt	-11.3912
▁charity	-11.3915
▁Newcastle	-11.3915
▁Mind	-11.3916
▁wars	-11.3916
▁Basilica	-11.3917
▁Rover	-11.3919
▁ski	-11.3919
▁Weather	-11.3922
▁supports	-11.3924
▁periodic	-11.393
▁pitcher	-11.3931
▁strand	-11.3933
stream	-11.3942
▁atmospheric	-11.3943
class	-11.3944
▁Tree	-11.3948
World	-11.3949
▁Operation	-11.3957
ingen	-11.396
▁trait	-11.3961
book	-11.3963
▁Grant	-11.3968
▁shooting	-11.3977
▁Buddha	-11.3982
▁Chemistry	-11.3982
werp	-11.3983
▁athletes	-11.3983
▁smell	-11.3984
▁Intel	-11.3984
▁puzzle	-11.3985
▁preference	-11.3987
▁praise	-11.3987
▁coastline	-11.3987
▁Ecuador	-11.3987
tte	-11.399
▁mini	-11.3991
▁Non	-11.3991
▁Daily	-11.3999
tes	-11.4
ck	-11.4001
▁Sahara	-11.4008
▁universal	-11.4025
▁Pluto	-11.4025
smith	-11.4027
▁Ultra	-11.403
▁rebuil	-11.4031
▁Albums	-11.4032
▁preserv	-11.4034
▁insurance	-11.4035
▁Fly	-11.4035
wa	-11.4035
▁eliminated	-11.4036
▁hearing	-11.4039
▁Win	-11.404
▁Baba	-11.404
▁Unit	-11.4041
▁Cardinals	-11.4044
mi	-11.4045
▁Shaw	-11.4048
▁Chuck	-11.4049
▁restore	-11.405
▁tornado	-11.405
▁invade	-11.4053
▁tomato	-11.4057
▁Sauber	-11.4058
▁laboratory	-11.4058
▁drift	-11.4058
▁Duchess	-11.4059
▁acute	-11.406
▁democracy	-11.4061
▁clan	-11.4062
▁cow	-11.4065
▁1868	-11.4067
▁Rich	-11.4069
▁minorit	-11.4069
▁XIV	-11.407
▁Spencer	-11.4077
▁Command	-11.4082
▁reside	-11.4083
▁Musical	-11.4084
▁exile	-11.4101
SSR	-11.4102
▁Mobile	-11.4104
▁Wells	-11.411
▁please	-11.4112
▁Ande	-11.4113
▁pipe	-11.4115
▁Gran	-11.4118
▁Il	-11.4121
berry	-11.4122
▁bak	-11.4122
▁il	-11.4122
29	-11.4133
▁laureate	-11.4133
▁turtle	-11.4133
▁Tanzania	-11.4133
▁1842	-11.4133
▁rabbit	-11.4134
▁Kids	-11.4134
▁Monaco	-11.4134
led	-11.4136
▁Derbyshire	-11.4138
▁variation	-11.414
▁Vampire	-11.4141
▁marketing	-11.4141
▁relief	-11.4142
▁sin	-11.4142
▁1812	-11.4143
▁Charter	-11.4148
▁Aaron	-11.4149
▁correspond	-11.4155
▁Tel	-11.4157
ani	-11.4164
ps	-11.4164
▁crops	-11.4169
▁designate	-11.417
▁Drive	-11.4171
gary	-11.4173
▁principles	-11.4173
▁Livingston	-11.4174
Daniel	-11.4175
▁57	-11.4177
▁bats	-11.4177
▁Whit	-11.4178
gi	-11.4181
▁abandon	-11.4181
▁Schr	-11.4181
▁Rey	-11.4182
▁Tri	-11.4183
▁Deutsche	-11.4191
▁1500	-11.4203
▁Azerbaijan	-11.4204
▁arrondissement	-11.4209
▁explosion	-11.4209
▁kernel	-11.4209
▁Agreement	-11.4211
▁Lotus	-11.4212
▁63	-11.4214
▁Hyderabad	-11.4214
▁criticism	-11.4215
▁Romantic	-11.4216
▁harbor	-11.4216
▁Boeing	-11.4218
▁volcanoes	-11.4219
▁105	-11.4221
▁Lutheran	-11.4223
▁coup	-11.4233
▁Craig	-11.4233
▁Yoshi	-11.4235
▁cord	-11.4235
▁hydro	-11.4237
▁fun	-11.424
▁organis	-11.4244
▁Turk	-11.4248
▁hymn	-11.4249
▁Spider	-11.4251
1999/	-11.4253
third	-11.4257
▁engage	-11.4261
▁marking	-11.4261
▁lock	-11.4264
▁Kirk	-11.4264
▁nominate	-11.4266
▁mines	-11.4271
▁gather	-11.4273
▁Mongolia	-11.4277
▁Small	-11.428
ev	-11.4283
▁cryptography	-11.4286
NASCAR	-11.4286
▁comparison	-11.4286
▁Actress	-11.4287
▁chicken	-11.4287
▁participant	-11.4287
▁enzyme	-11.4288
▁Campaign	-11.4288
▁windows	-11.4289
▁Micro	-11.4289
▁enroll	-11.4289
▁Karachi	-11.4289
▁Burton	-11.4294
▁Highland	-11.4296
▁Waterloo	-11.4297
▁Fischer	-11.4297
▁Peak	-11.4299
▁drain	-11.4301
BBC	-11.4301
▁Henri	-11.4302
▁systematic	-11.4306
34	-11.4307
▁gay	-11.4309
▁ear	-11.431
▁fortress	-11.4312
▁Que	-11.4319
▁Ober	-11.4321
▁Kill	-11.4323
▁Base	-11.4329
▁Call	-11.433
▁afternoon	-11.4333
Initial	-11.4333
broad	-11.4333
Coburg	-11.4333
▁shirt	-11.4338
▁battles	-11.434
▁whale	-11.4344
▁Hour	-11.4344
▁Eagle	-11.4352
▁explore	-11.4358
▁abbey	-11.4363
▁crab	-11.4363
▁ritual	-11.4364
▁Guatemala	-11.4365
▁intellectual	-11.4365
▁Bah	-11.4365
ile	-11.4365
▁shallow	-11.4366
ize	-11.437
▁Helsinki	-11.4371
▁Future	-11.4372
▁happ	-11.4374
▁Money	-11.4375
▁contribute	-11.4377
▁blow	-11.4378
IP	-11.4379
▁flash	-11.4383
▁Crystal	-11.4384
▁Met	-11.4385
▁walking	-11.4387
ang	-11.4392
▁keys	-11.4396
35	-11.4399
ridge	-11.4402
▁Carol	-11.4403
▁geological	-11.4405
▁Pat	-11.4407
▁practices	-11.4416
▁Baja	-11.4416
▁Wang	-11.4416
▁Pale	-11.4417
▁pan	-11.4421
▁Sul	-11.4423
▁59	-11.4424
▁Fat	-11.4424
q	-11.4426
▁Kate	-11.4428
▁cricket	-11.443
▁Versai	-11.4436
▁jersey	-11.4442
▁prosper	-11.4442
▁Apostle	-11.4442
▁economist	-11.4443
▁Delaware	-11.4443
▁trigger	-11.4443
▁Basque	-11.4444
▁Tu	-11.4445
▁kW	-11.4446
▁logical	-11.4446
▁democratic	-11.4446
▁Heat	-11.4447
▁triple	-11.4449
▁mountainous	-11.445
▁Edmonton	-11.4451
nik	-11.4451
ran	-11.4452
Mitchell	-11.4453
▁Cardinal	-11.4456
▁knight	-11.4463
▁im	-11.4464
▁Note	-11.4466
▁mild	-11.4469
▁Normand	-11.4469
▁Nam	-11.448
▁Dann	-11.4481
East	-11.4484
15	-11.4485
▁Olive	-11.4488
five	-11.4495
▁faced	-11.4495
▁Rice	-11.4498
▁singers	-11.4499
▁Janei	-11.4501
▁Mail	-11.4504
▁Qing	-11.4505
▁Macedonia	-11.4511
▁dioxi	-11.4513
▁Liu	-11.4514
▁Slovenia	-11.4516
▁Leafs	-11.4516
38	-11.4518
▁res	-11.452
▁Copenhagen	-11.452
▁mirror	-11.452
▁thumb	-11.452
▁strategy	-11.452
▁archipelago	-11.452
▁quartet	-11.4521
▁explicit	-11.4521
▁NCAA	-11.4521
▁transcription	-11.4521
▁repair	-11.4521
▁Durham	-11.4522
tant	-11.4522
▁steep	-11.4522
▁Bachelor	-11.4523
▁1803	-11.4523
▁appointment	-11.4523
▁CDU	-11.4523
▁Denver	-11.4523
▁Bi	-11.4524
▁prominen	-11.4524
▁prestig	-11.4525
▁Lesser	-11.4525
▁juice	-11.4528
▁grandmother	-11.4531
▁Aboriginal	-11.4532
▁tourism	-11.4533
Final	-11.4534
▁Slam	-11.4538
▁interpretation	-11.4539
▁115	-11.4541
32	-11.4542
▁Rosa	-11.4542
▁Off	-11.4544
▁Metal	-11.4547
▁Shawn	-11.4547
▁Edgar	-11.4553
▁Basin	-11.4556
▁Geography	-11.4557
▁hind	-11.4559
▁alter	-11.4559
ek	-11.4564
▁Ahmad	-11.4565
▁Wings	-11.4568
▁2,000	-11.4573
13	-11.4586
▁whales	-11.4586
▁Des	-11.4587
▁Greg	-11.4591
ida	-11.4599
▁drum	-11.4599
▁constituent	-11.46
▁Cornwall	-11.46
▁facility	-11.46
▁explanation	-11.46
▁synthetic	-11.4601
▁default	-11.4601
▁terminus	-11.4601
▁NATO	-11.4601
▁Confederate	-11.4602
▁Osaka	-11.4602
▁Stitch	-11.4603
▁navy	-11.4603
▁2.0	-11.4604
▁Oslo	-11.4606
▁Lisa	-11.4607
▁elementary	-11.4607
▁Caucas	-11.4608
▁diagnos	-11.4611
▁hp	-11.4612
▁revolutionar	-11.4613
Man	-11.4618
▁saving	-11.4618
llowed	-11.4623
▁Actor	-11.4629
▁topics	-11.4629
shaw	-11.4633
▁releas	-11.4636
▁Bat	-11.4639
▁Mega	-11.4642
▁fill	-11.4649
wick	-11.4651
English	-11.4653
▁Every	-11.4657
▁Vi	-11.466
▁Sr	-11.4669
▁sessions	-11.467
▁junction	-11.468
▁PPV	-11.468
▁Exchange	-11.4681
▁improvement	-11.4682
▁Contest	-11.4683
▁clos	-11.4683
▁Tech	-11.4684
▁Lightning	-11.4686
▁Beethoven	-11.4687
▁voltage	-11.4688
▁agents	-11.4689
▁Cell	-11.469
▁opportunity	-11.4694
▁Hindenburg	-11.4694
▁herb	-11.4694
▁Amade	-11.4695
▁Ab	-11.4701
▁Wonder	-11.4702
▁Bang	-11.4704
▁migration	-11.4704
▁photographer	-11.4707
▁Congo	-11.4707
▁125	-11.4707
▁armor	-11.4713
▁1834	-11.4717
▁increases	-11.472
▁Mick	-11.4721
ribal	-11.4724
▁micro	-11.4728
beck	-11.4731
ility	-11.4734
▁Kid	-11.4734
ez	-11.4735
ampton	-11.4736
ack	-11.4736
▁Prussian	-11.4742
▁estuar	-11.4746
▁Work	-11.4753
▁1831	-11.4754
▁rates	-11.4759
▁Valais	-11.476
▁sculptor	-11.4761
▁Cincinnati	-11.4761
▁Beyoncé	-11.4762
▁consort	-11.4762
▁Hanover	-11.4762
Y	-11.4762
▁Lanca	-11.4762
2009/	-11.4764
▁Memphis	-11.4764
▁cutting	-11.4766
▁shaft	-11.4767
▁Pole	-11.4767
▁Lulu	-11.4767
▁1844	-11.4768
▁62	-11.4768
▁Fritz	-11.477
▁exceptional	-11.477
▁opens	-11.477
▁Maxwell	-11.4771
▁Rugby	-11.4774
▁mill	-11.4776
▁Technical	-11.4776
▁Shi	-11.4776
▁Brett	-11.4776
▁ray	-11.4782
▁interval	-11.4782
▁Control	-11.4783
▁recipient	-11.4783
▁animate	-11.479
▁Gro	-11.4791
▁soup	-11.4793
▁deck	-11.4794
▁Qu	-11.4804
▁teachings	-11.4804
▁Population	-11.4805
▁thinking	-11.4808
force	-11.481
▁Kirby	-11.4811
▁Examples	-11.4813
Similar	-11.4814
dom	-11.4815
▁margin	-11.4816
▁luna	-11.4817
2002/	-11.4817
1798	-11.4827
▁Bohemia	-11.483
▁suffering	-11.4841
▁infrastructure	-11.4842
▁libretto	-11.4842
▁convince	-11.4842
▁Dolphin	-11.4842
▁fragment	-11.4842
▁competitor	-11.4842
▁lemon	-11.4842
▁sperm	-11.4842
▁scholarship	-11.4843
▁Nashville	-11.4843
▁Montana	-11.4844
▁Judaism	-11.4844
▁separation	-11.4844
▁beetle	-11.4845
▁occupy	-11.4845
▁skeleton	-11.4847
▁Grameen	-11.4847
▁Domingo	-11.4847
▁ears	-11.4851
▁Mysterio	-11.4853
▁1790	-11.4854
place	-11.4859
written	-11.486
▁IOC	-11.4861
▁grave	-11.4861
▁1875	-11.4863
terior	-11.4864
▁triangle	-11.4865
▁Elder	-11.4865
▁bi	-11.4866
rock	-11.4871
▁snakes	-11.4872
▁Food	-11.4879
▁Andrea	-11.488
▁Cole	-11.4882
▁Search	-11.4887
ick	-11.4889
Christian	-11.4894
▁Chang	-11.4895
June	-11.49
▁trail	-11.4907
▁photo	-11.4909
▁plains	-11.491
▁Advanced	-11.4911
▁fac	-11.4918
▁lesser	-11.492
▁pie	-11.492
▁Marvel	-11.4921
▁mud	-11.4922
▁surprise	-11.4924
▁referendum	-11.4924
▁flie	-11.4924
▁acronym	-11.4924
▁fault	-11.4924
enoit	-11.4924
▁Cologne	-11.4925
▁naked	-11.4926
▁Mahler	-11.4928
▁landmark	-11.4928
▁Cor	-11.4931
87	-11.4933
▁Lanark	-11.4933
▁burial	-11.4935
▁assassination	-11.4938
▁auto	-11.4939
▁Olympiad	-11.4941
aki	-11.4944
▁Braille	-11.4946
▁1810	-11.4946
▁olive	-11.4948
▁Fra	-11.4951
▁suspect	-11.4951
▁slavery	-11.4953
▁Sha	-11.4958
▁pack	-11.4965
▁continuing	-11.4965
▁venture	-11.4966
▁wiki	-11.4967
oka	-11.497
▁stroke	-11.497
▁Brun	-11.4972
▁corn	-11.498
▁informal	-11.4981
November	-11.4982
power	-11.4982
▁Tal	-11.4983
▁Nash	-11.4983
▁minimal	-11.4986
▁archaeolog	-11.4986
▁developers	-11.4986
ft	-11.4988
▁1847	-11.499
▁alien	-11.4991
▁81	-11.4994
▁spaces	-11.4994
▁oral	-11.4995
enstein	-11.4999
▁burning	-11.5001
▁Broadwa	-11.5002
▁zinc	-11.5005
▁strategic	-11.5007
▁segments	-11.5007
▁FA	-11.5007
▁gap	-11.5008
▁embedd	-11.5009
▁bicycle	-11.5011
▁Timor	-11.5013
▁installation	-11.5013
▁nineteenth	-11.5014
▁panel	-11.5014
igh	-11.5015
▁Cairo	-11.5015
▁inspiration	-11.5016
▁Roll	-11.5016
▁Mat	-11.5017
▁burie	-11.5018
flat	-11.5021
▁width	-11.5021
horn	-11.5021
▁Guild	-11.5024
▁Leon	-11.5024
▁arena	-11.5024
▁Luigi	-11.5026
work	-11.5027
▁cited	-11.5027
▁Yan	-11.5028
▁Program	-11.503
▁rocket	-11.5031
▁veteran	-11.5034
▁venue	-11.5035
▁conductors	-11.5036
▁1821	-11.5036
▁Claude	-11.5037
▁Sta	-11.504
enberg	-11.5045
▁1600	-11.5052
▁True	-11.5057
mmunity	-11.5058
▁variant	-11.5058
▁3,000	-11.5059
▁PS	-11.5061
Modern	-11.5066
ownership	-11.5067
▁bombs	-11.5072
▁Sainte	-11.5084
▁1851	-11.5087
▁Units	-11.5088
▁item	-11.5089
▁leather	-11.509
▁perspective	-11.509
▁Harbour	-11.509
▁concrete	-11.509
▁significance	-11.509
▁Bonn	-11.509
▁modification	-11.509
▁Yokohama	-11.5091
▁Morning	-11.5092
▁mixing	-11.5095
▁revision	-11.5096
▁duke	-11.5097
18	-11.5099
▁Paramount	-11.51
▁Rapid	-11.5101
▁1809	-11.5105
▁Wesley	-11.5109
▁Concert	-11.511
▁Bra	-11.5112
▁Malta	-11.5113
▁Shir	-11.5113
ibn	-11.5115
▁lava	-11.5116
▁Version	-11.5123
▁Picture	-11.5123
▁strain	-11.5126
▁Bath	-11.5128
▁1843	-11.5131
▁Jamm	-11.5137
▁Data	-11.514
▁tin	-11.5142
▁presentation	-11.5142
▁Use	-11.5149
▁Gotha	-11.5149
minute	-11.515
▁labels	-11.5155
▁penalt	-11.5155
▁dominate	-11.5159
▁Divisi	-11.5165
▁grammar	-11.5174
▁Idol	-11.5174
▁limestone	-11.5174
▁Cambrian	-11.5175
▁cinema	-11.5175
▁commentator	-11.5175
▁Deput	-11.5175
▁collaboration	-11.5176
▁edible	-11.5176
▁advocate	-11.5177
▁bin	-11.5177
▁Burke	-11.5178
▁surgery	-11.5179
▁Brisbane	-11.5179
▁doors	-11.5179
▁1833	-11.5181
▁Portland	-11.5181
▁Sweet	-11.5182
▁Hawaiian	-11.5186
▁crush	-11.5187
▁affiliate	-11.5189
▁ready	-11.519
going	-11.5191
▁Covent	-11.5193
▁Lorenzo	-11.5194
▁Aang	-11.52
handed	-11.52
▁index	-11.5201
▁Wallace	-11.5202
▁Collection	-11.5205
ture	-11.5208
▁Theater	-11.5209
▁yearly	-11.5215
▁duck	-11.5216
▁guns	-11.5217
▁Case	-11.5218
▁rush	-11.522
▁Ad	-11.5221
▁Lugan	-11.5221
▁Rush	-11.5221
▁beside	-11.5222
▁profile	-11.5226
▁honorar	-11.5229
ozilla	-11.5233
▁spine	-11.5234
▁legally	-11.5235
▁Romeo	-11.5235
▁provider	-11.5236
organic	-11.5236
▁Clay	-11.5236
case	-11.5237
illa	-11.5239
Usual	-11.524
▁Link	-11.5242
vin	-11.5244
▁comun	-11.5246
▁84	-11.5251
holy	-11.5252
▁pizza	-11.5258
▁retreat	-11.5258
▁fee	-11.5259
▁Nebraska	-11.526
▁fortified	-11.5262
ello	-11.5263
▁Bastille	-11.5263
▁broadcasting	-11.5266
▁Genus	-11.5266
▁highlight	-11.5266
▁1804	-11.5267
▁nitrogen	-11.5268
▁configuration	-11.5268
▁mate	-11.5269
▁Concerto	-11.5269
▁wheat	-11.5275
▁Finn	-11.5278
▁Colin	-11.5284
▁Canucks	-11.5285
national	-11.529
▁Allie	-11.529
▁graphic	-11.529
illo	-11.5291
▁Ghost	-11.5296
▁Greenland	-11.5299
▁Plata	-11.5303
King	-11.5304
▁Hanna	-11.5305
▁friendly	-11.531
▁Rod	-11.5313
▁bid	-11.5313
▁Neo	-11.5314
ano	-11.5316
▁dialects	-11.5322
▁vegetables	-11.5324
▁disorders	-11.5332
core	-11.5335
▁Environment	-11.5337
▁Baro	-11.5338
▁wrestle	-11.534
▁facult	-11.5344
▁punishment	-11.5345
▁Stuttgart	-11.5345
▁exposure	-11.5346
▁cash	-11.5346
▁1776	-11.5346
▁mouse	-11.5346
▁considerably	-11.5347
▁Angle	-11.5352
▁pursue	-11.5353
▁Sunderland	-11.5355
▁isolat	-11.5355
Hurricane	-11.5356
Famous	-11.5357
▁apartment	-11.5358
gry	-11.5358
▁Nicolas	-11.5359
▁Haute	-11.5361
▁settlements	-11.5363
▁arcade	-11.5363
▁Hawks	-11.5365
res	-11.5367
▁Mel	-11.5367
▁assume	-11.5368
▁ladder	-11.5368
▁Camill	-11.5369
stock	-11.5372
▁stimul	-11.5372
▁Workers	-11.5375
▁Isabella	-11.5375
▁sacr	-11.5378
▁parliamentar	-11.538
▁Rat	-11.5381
▁Secret	-11.5385
▁teen	-11.539
▁pointed	-11.5391
▁aware	-11.5391
▁Albany	-11.5392
▁1770	-11.5396
▁integrat	-11.5399
▁secular	-11.5399
low	-11.5406
Pakhtunkhwa	-11.5407
▁Cran	-11.5413
▁explor	-11.5416
▁merge	-11.5416
anna	-11.5419
▁clouds	-11.5424
formed	-11.543
▁partnership	-11.5432
▁dubb	-11.5432
▁vapor	-11.5432
▁Antioch	-11.5435
▁EU	-11.5439
▁Duck	-11.544
▁Lombardy	-11.5441
fire	-11.5445
mont	-11.5445
▁Nancy	-11.5447
▁poll	-11.5447
▁78	-11.5448
ja	-11.5448
▁Chemical	-11.5451
ère	-11.5453
di	-11.5454
rie	-11.5459
▁Todd	-11.5459
▁Scots	-11.546
▁seeing	-11.5463
▁Bates	-11.5464
▁peer	-11.5466
ocene	-11.5467
▁emphasis	-11.5467
▁rotat	-11.5467
▁08	-11.5469
▁bearing	-11.5469
▁pig	-11.547
▁folklor	-11.5475
▁Rhodes	-11.5476
▁Kosov	-11.5477
▁Bavarian	-11.548
▁67	-11.548
Start	-11.5483
▁remarkabl	-11.5486
▁linguistic	-11.5487
▁Tr	-11.549
▁Types	-11.5493
▁Barne	-11.5496
Common	-11.5497
▁Constantine	-11.5499
▁Narnia	-11.55
▁Fuji	-11.5503
▁Bosnia	-11.5507
▁toys	-11.5509
▁Ports	-11.5515
kreis	-11.5516
▁trough	-11.5517
▁Attorney	-11.5518
▁impossible	-11.5518
▁Negro	-11.5519
▁Ipswich	-11.5519
jo	-11.552
▁Flash	-11.552
▁Kenya	-11.5521
▁175	-11.5522
▁Bret	-11.5524
▁Lachlan	-11.5529
▁qualifi	-11.5531
▁Felix	-11.5532
▁Ban	-11.5532
▁Return	-11.5537
▁Jackie	-11.5537
▁Bulgarian	-11.5539
▁unifi	-11.554
▁Rudolf	-11.5542
▁Simple	-11.5542
▁Reading	-11.5544
74	-11.555
▁Das	-11.5554
▁alive	-11.5555
▁para	-11.5563
▁crack	-11.5565
▁Sinn	-11.5565
name	-11.5566
▁Mile	-11.5566
sbury	-11.5571
▁caps	-11.5571
▁ant	-11.5576
▁boats	-11.5578
ju	-11.5579
▁busies	-11.5579
San	-11.5586
▁Mare	-11.5586
running	-11.5587
placed	-11.5591
▁Salvador	-11.5594
Ch	-11.5596
▁acres	-11.5597
▁Melina	-11.5599
▁indicat	-11.5599
▁deputy	-11.5605
▁delegate	-11.5605
ireann	-11.5605
▁mascot	-11.5605
▁sufficient	-11.5605
▁Sheppard	-11.5605
▁dismiss	-11.5606
set	-11.5606
▁implie	-11.5606
▁Essex	-11.5606
▁redirect	-11.5607
▁revival	-11.5607
▁encryption	-11.5607
▁socialist	-11.5608
▁Britten	-11.5608
▁Ridge	-11.5609
dium	-11.561
▁palm	-11.561
▁endangered	-11.5611
▁erectus	-11.5613
▁dedicate	-11.5615
▁Gil	-11.5615
▁Hol	-11.5616
▁Bismarck	-11.5617
▁Trial	-11.5619
Saxon	-11.5621
Events	-11.5622
▁assault	-11.5624
▁Odysse	-11.5624
▁resid	-11.5626
▁Historical	-11.5626
▁Principal	-11.5627
▁Vesta	-11.5628
ingham	-11.5631
▁Eli	-11.5635
▁Owen	-11.5637
▁Hat	-11.564
▁humanity	-11.5641
▁meal	-11.5642
▁Former	-11.5643
size	-11.5645
▁Jessi	-11.5645
▁bat	-11.5645
▁dominat	-11.5646
▁legislati	-11.5648
tt	-11.5651
ties	-11.5655
Dr	-11.5658
point	-11.5661
▁Rhode	-11.5665
▁Yu	-11.5674
▁Net	-11.5675
chuan	-11.5677
▁Cave	-11.568
▁Teen	-11.5687
▁20,000	-11.5687
▁fir	-11.5688
82	-11.5688
▁tomb	-11.5688
▁Ju	-11.569
▁NH	-11.569
enham	-11.5691
▁transmitt	-11.5693
▁gospel	-11.5693
▁parody	-11.5694
▁disambiguati	-11.5694
▁Nebula	-11.5695
▁textile	-11.5695
▁twentieth	-11.5696
▁insert	-11.5696
▁studios	-11.5697
▁superhero	-11.5697
▁McLaren	-11.5699
▁Dresden	-11.57
▁eagle	-11.5701
▁Blair	-11.5701
▁decoration	-11.5701
▁Canterbury	-11.5701
▁Strauss	-11.5702
▁Dubai	-11.5703
▁Liberty	-11.5704
▁Hero	-11.5707
▁Suite	-11.5708
▁Niger	-11.5709
▁fort	-11.5711
▁forcing	-11.5712
eating	-11.5712
ascar	-11.5714
42	-11.5715
▁shadow	-11.5716
▁township	-11.572
▁habitats	-11.572
Q	-11.5726
▁exclud	-11.5729
▁chemicals	-11.5729
▁Lilo	-11.5729
▁puppet	-11.5731
▁Alba	-11.5737
▁Gen	-11.5737
▁sh	-11.574
▁Panther	-11.574
Event	-11.5742
▁partition	-11.5746
▁Ground	-11.5747
▁Face	-11.5747
▁Gang	-11.5751
foot	-11.5763
▁viola	-11.5764
Alexander	-11.5765
▁Masters	-11.5769
▁Blake	-11.5769
▁Animal	-11.577
▁watche	-11.5777
▁Aug	-11.5777
▁Any	-11.5779
ria	-11.5782
▁advertisement	-11.5783
▁crisis	-11.5784
▁undergraduate	-11.5784
▁psychological	-11.5784
▁Capitol	-11.5785
Men	-11.5786
▁graph	-11.5789
▁Industrial	-11.579
▁skat	-11.579
▁Institution	-11.5791
▁Beat	-11.5793
continent	-11.5796
▁Twin	-11.5796
▁Beck	-11.58
ING	-11.5801
▁Marth	-11.5801
▁Global	-11.5803
▁1829	-11.5806
▁solve	-11.5808
ski	-11.5809
▁dome	-11.581
▁mine	-11.5812
▁Location	-11.5813
▁kick	-11.5814
▁Break	-11.5815
German	-11.5816
▁bull	-11.5822
▁mail	-11.5823
▁thanks	-11.5824
▁elaborate	-11.5829
▁honors	-11.5837
▁Motors	-11.5839
▁1817	-11.5842
▁Hunter	-11.5848
▁Block	-11.5849
ut	-11.5849
▁runner	-11.5863
▁Artist	-11.5863
▁Constantinop	-11.5863
nes	-11.5865
▁Date	-11.5865
Only	-11.5866
▁Mall	-11.5868
▁borrow	-11.5868
▁tons	-11.5872
▁explosive	-11.5873
▁neutron	-11.5873
▁Grammar	-11.5873
▁shopping	-11.5873
▁poverty	-11.5873
▁hurt	-11.5873
▁precipitation	-11.5873
▁vacuum	-11.5874
▁shrine	-11.5874
▁Vermont	-11.5875
▁Bremen	-11.5876
▁regiment	-11.5877
▁Pocket	-11.5877
▁outdoor	-11.5878
▁Triassic	-11.5878
Just	-11.588
▁beef	-11.5881
▁flux	-11.5882
rn	-11.5882
▁Broadcasting	-11.5883
▁Wizard	-11.5883
▁minus	-11.5886
▁Vaux	-11.5887
▁Shore	-11.5887
▁tenor	-11.5887
▁Continental	-11.5889
▁Walker	-11.5892
▁Farm	-11.5893
▁Gates	-11.5896
▁Alfons	-11.5897
▁Mato	-11.59
▁Ellis	-11.5901
fried	-11.5903
▁angular	-11.5905
▁characterize	-11.5907
order	-11.5912
▁Indie	-11.5914
▁riding	-11.5916
▁Fish	-11.592
▁tract	-11.592
▁approval	-11.5922
▁sexually	-11.5922
▁Market	-11.5924
Marina	-11.5926
▁doubles	-11.5927
▁Pabl	-11.5927
▁Piano	-11.5928
▁76	-11.5929
▁observation	-11.5929
86	-11.5938
active	-11.5941
▁Mir	-11.5942
▁lung	-11.5944
Hungary	-11.5947
19	-11.5954
▁Kuwait	-11.5957
28	-11.5958
▁Monster	-11.5961
▁cocoa	-11.5964
▁Habsburg	-11.5964
▁overthrow	-11.5964
▁personnel	-11.5965
Platinum	-11.5966
▁peaceful	-11.5967
▁valuable	-11.5967
▁squad	-11.5968
hitting	-11.5969
▁Honda	-11.5971
▁Ruth	-11.5973
▁500,000	-11.5973
▁girlfriend	-11.5974
yama	-11.5974
▁Hundred	-11.5976
▁invite	-11.5978
▁doubt	-11.5978
mark	-11.598
▁Dunde	-11.5982
▁Sean	-11.5983
▁shooter	-11.5985
▁Churches	-11.599
ber	-11.5991
73	-11.5992
▁container	-11.5994
bandoned	-11.5997
Bois	-11.5999
▁undergo	-11.6001
released	-11.6008
▁satellites	-11.6008
▁Figure	-11.6013
▁Lloyd	-11.602
▁cheap	-11.6021
ette	-11.6021
▁Document	-11.6029
▁fitte	-11.6033
69	-11.6034
fiction	-11.6035
▁accidental	-11.6047
▁Albania	-11.6048
▁reporter	-11.6051
▁focuse	-11.6052
▁Jas	-11.6055
▁prompt	-11.6055
▁circumstance	-11.6055
▁brands	-11.6055
▁superior	-11.6056
hill	-11.6057
▁Journey	-11.6059
▁pregnanc	-11.606
▁Springfield	-11.6061
▁1855	-11.6062
▁Gettysburg	-11.6063
▁kangaroo	-11.6063
▁Keynes	-11.6063
▁contributor	-11.6064
▁Naval	-11.6065
▁racial	-11.6069
▁Ya	-11.6071
aya	-11.6072
▁Turner	-11.6073
▁87	-11.6073
lon	-11.6073
▁Punk	-11.6074
▁Lil	-11.6075
▁Zur	-11.6076
▁eleventh	-11.6076
▁Tru	-11.6078
▁tooth	-11.6082
▁Guru	-11.6083
ane	-11.6086
▁carrier	-11.609
▁poorly	-11.6091
▁fairy	-11.6091
▁devastat	-11.6098
49	-11.6103
pop	-11.6106
built	-11.6108
▁reduc	-11.6109
▁meter	-11.6111
wi	-11.6112
▁reproduce	-11.6114
▁debt	-11.6114
▁Knights	-11.6117
tari	-11.6118
enance	-11.6119
▁butterfl	-11.6119
tiny	-11.612
▁1835	-11.6121
bach	-11.6122
▁Railways	-11.6123
▁Rica	-11.6131
▁trouble	-11.6132
▁talks	-11.6132
▁Horn	-11.6134
Traditional	-11.6137
▁metre	-11.6137
▁1845	-11.6141
▁Turn	-11.6143
▁110	-11.6145
▁mysterious	-11.6148
▁legitimate	-11.6148
▁territorial	-11.6148
▁relativity	-11.6148
▁lap	-11.6149
▁wedding	-11.6149
▁FSF	-11.6149
▁Skating	-11.6149
▁Guinness	-11.615
▁Olga	-11.6151
▁empty	-11.6151
▁Holocaust	-11.6152
▁divine	-11.6152
▁Opposition	-11.6153
▁celest	-11.6154
▁legislation	-11.6154
▁Priest	-11.6155
ae	-11.6155
▁Stage	-11.6156
▁Seoul	-11.6156
▁Jazz	-11.6157
▁derivative	-11.6158
unification	-11.616
▁Dayton	-11.6166
▁prefer	-11.6168
▁Stallone	-11.6169
▁brick	-11.6175
▁Next	-11.6176
▁brass	-11.6181
Mer	-11.6182
Near	-11.6182
▁Ky	-11.6187
▁Hiroshi	-11.6188
De	-11.6191
25	-11.6195
99	-11.6198
▁holes	-11.6198
▁chef	-11.6199
del	-11.6201
▁phyl	-11.6202
▁Bol	-11.6203
▁par	-11.6204
▁benefit	-11.6208
▁bush	-11.6211
▁node	-11.6212
▁Ferr	-11.6215
▁Troy	-11.6215
▁fled	-11.6216
inger	-11.6218
▁bowl	-11.622
▁flesh	-11.6221
▁97	-11.6221
▁golf	-11.6223
▁performers	-11.6224
▁chapters	-11.6224
▁horn	-11.6231
itis	-11.6235
▁lavender	-11.6241
▁thunderstorm	-11.6241
▁warfare	-11.6241
Calendar	-11.6242
▁audition	-11.6242
▁fraction	-11.6242
▁bonus	-11.6242
▁Montenegro	-11.6242
▁technologi	-11.6243
▁honour	-11.6243
▁motto	-11.6243
▁Municipality	-11.6244
▁installment	-11.6244
▁XII	-11.6244
▁Bombay	-11.6246
Based	-11.6246
▁examination	-11.6246
▁gender	-11.6247
▁chest	-11.6251
▁sulfide	-11.6251
▁Inner	-11.6252
▁94	-11.6254
▁flee	-11.6255
▁Cayce	-11.6255
▁terrorist	-11.6257
▁versu	-11.6258
▁Cultural	-11.6259
▁transit	-11.626
action	-11.626
▁roller	-11.6263
▁suburban	-11.6264
▁Gay	-11.6264
colm	-11.6266
▁Present	-11.6268
57	-11.6269
▁1.8	-11.6271
▁lizards	-11.6271
93	-11.6273
▁Know	-11.6274
▁tier	-11.6277
▁accord	-11.628
▁Phillip	-11.628
▁grid	-11.628
▁Just	-11.628
▁calculate	-11.6282
▁Wu	-11.6283
▁Discovery	-11.6283
related	-11.6283
▁Tunisia	-11.6285
▁Set	-11.6286
▁Boris	-11.6286
▁Political	-11.629
▁Artemis	-11.6295
biography	-11.6302
▁Wei	-11.6302
▁solutions	-11.6306
▁Transit	-11.6314
▁Electronic	-11.6316
▁Clarke	-11.6317
Four	-11.6317
▁tale	-11.6318
through	-11.6324
▁pot	-11.6324
▁Saxon	-11.6325
operative	-11.6326
Dame	-11.6329
ula	-11.6331
game	-11.6332
▁drinks	-11.6333
▁repeat	-11.6334
▁Lou	-11.6335
▁Yo	-11.6335
▁potato	-11.6336
▁Oblast	-11.6336
▁fitness	-11.6337
▁culminat	-11.6338
▁calcium	-11.6338
▁varying	-11.6339
▁carriage	-11.6339
▁Tin	-11.6339
▁1788	-11.6339
▁Unix	-11.634
▁recreation	-11.634
▁NHC	-11.634
▁restriction	-11.634
▁30,000	-11.6343
▁prepare	-11.6344
▁Montgomery	-11.6344
▁Pirate	-11.6345
▁Ted	-11.6347
65	-11.6347
▁Parma	-11.6347
▁abilities	-11.6347
apest	-11.6348
▁handheld	-11.6351
▁certifi	-11.6353
▁Dal	-11.6357
▁117	-11.6358
▁differential	-11.636
tz	-11.6365
▁Ce	-11.6368
▁Hawk	-11.6369
▁Edwards	-11.6371
▁Full	-11.6375
▁exceed	-11.6377
Mean	-11.6378
▁earthquakes	-11.638
ception	-11.6383
▁bitter	-11.6384
OS	-11.6384
chester	-11.6388
47	-11.6391
▁GM	-11.6398
▁predator	-11.6406
▁invention	-11.6408
ides	-11.641
▁substitute	-11.6411
▁situations	-11.6412
▁printing	-11.6414
▁interact	-11.6415
▁Cloud	-11.6416
▁digest	-11.6417
Sa	-11.6423
▁dealing	-11.6424
▁cleaning	-11.6425
▁Manil	-11.6427
ik	-11.643
▁celebrity	-11.6431
▁skyscraper	-11.6431
round	-11.6431
▁barrier	-11.6431
▁Wyoming	-11.6431
▁Presidency	-11.6432
▁Byron	-11.6432
▁competitive	-11.6432
▁Calcio	-11.6435
▁Wake	-11.6437
▁honey	-11.6439
26	-11.6439
▁survivor	-11.644
▁Transportation	-11.6442
▁Hannibal	-11.6444
▁Susanna	-11.6444
▁Singh	-11.6445
▁organisation	-11.6446
▁antenna	-11.6452
▁Roma	-11.6453
▁illustrat	-11.6456
▁Fl	-11.6458
▁compress	-11.6458
▁anchor	-11.6462
▁hardcore	-11.6463
▁warn	-11.6468
borne	-11.6468
▁Crow	-11.6468
▁Lyon	-11.6469
▁connections	-11.647
▁Roy	-11.6472
▁Mersey	-11.6473
▁Kart	-11.6479
▁Inn	-11.6482
▁dis	-11.6484
▁photos	-11.6486
▁Mari	-11.6491
▁reverse	-11.6497
▁lizard	-11.6499
▁Jet	-11.65
▁Plate	-11.6501
mo	-11.6503
▁Take	-11.6506
▁Lab	-11.6507
▁hi	-11.6509
▁Ming	-11.6512
▁Week	-11.6512
▁Libya	-11.6516
▁XP	-11.6516
▁astronomical	-11.6517
strong	-11.6517
▁pound	-11.6518
▁strange	-11.652
▁miss	-11.6524
▁Train	-11.6524
▁clarinet	-11.6524
References	-11.6524
▁Walk	-11.6524
▁Municipal	-11.6526
▁import	-11.6527
▁quark	-11.6527
▁Gre	-11.6527
▁Mala	-11.6527
▁Burgund	-11.6527
▁incarnation	-11.6527
▁1792	-11.6527
▁announcement	-11.6528
▁cardinal	-11.6529
▁cargo	-11.653
▁Kyoto	-11.653
▁fortune	-11.653
▁Herzegovina	-11.653
▁trap	-11.653
▁Adelaide	-11.6531
▁Trail	-11.6531
ison	-11.6532
▁Lea	-11.6537
▁sink	-11.6538
▁ceremonies	-11.6538
▁Marino	-11.6539
▁duty	-11.654
▁Crawford	-11.6541
▁Empress	-11.6541
▁galax	-11.6542
rk	-11.6546
ala	-11.655
fa	-11.6551
▁Leopold	-11.6552
far	-11.6555
5,000	-11.6556
▁inspire	-11.6556
▁Construction	-11.656
▁remix	-11.6564
▁loud	-11.6566
▁occasion	-11.6567
▁ban	-11.6568
▁Gerald	-11.657
▁conclud	-11.6571
▁Porto	-11.6574
▁Düssel	-11.6578
▁Strat	-11.6583
▁Harve	-11.6584
▁1825	-11.6584
▁pastor	-11.6591
▁gathering	-11.6595
▁tasks	-11.6596
odium	-11.6597
▁Manager	-11.6598
▁playoff	-11.6605
spheric	-11.6608
▁Alternative	-11.6609
▁formats	-11.6609
▁Papua	-11.6612
▁commemorate	-11.6615
▁heredit	-11.662
▁filter	-11.662
▁Mon	-11.6621
▁ages	-11.6621
▁Survey	-11.6624
▁temporarily	-11.6624
▁enormous	-11.6624
▁autumn	-11.6624
▁commence	-11.6624
▁grind	-11.6624
▁intermediate	-11.6624
▁Stafford	-11.6625
▁ensemble	-11.6625
▁naturalist	-11.6625
▁slang	-11.6626
▁electoral	-11.6626
▁freight	-11.6627
▁criticiz	-11.6628
▁Competition	-11.6628
▁Slipknot	-11.6629
▁corporate	-11.6629
▁momentum	-11.663
▁twist	-11.663
▁Bedford	-11.6633
▁Yale	-11.6633
▁pornograph	-11.6634
▁1806	-11.6634
▁generic	-11.6635
▁Richter	-11.6635
▁hybrid	-11.6637
▁hung	-11.6639
▁CEO	-11.664
▁Origin	-11.664
▁dependent	-11.6641
▁bacteri	-11.6641
▁Yang	-11.6641
▁Rachel	-11.6643
▁Mission	-11.6644
▁Lynn	-11.6646
Biblical	-11.6647
2000/	-11.6648
su	-11.6651
incorporat	-11.6652
iness	-11.6653
France	-11.6654
▁engag	-11.6657
suke	-11.6657
▁Gene	-11.6658
▁Josh	-11.6659
▁Plant	-11.6659
▁Dennis	-11.666
oshi	-11.6662
▁sur	-11.6664
named	-11.6676
▁breath	-11.6678
▁tests	-11.6678
Note	-11.6681
▁Hor	-11.6687
▁fox	-11.6688
▁Lithuanian	-11.6694
▁3.5	-11.6695
sch	-11.6706
▁nurse	-11.6706
▁200,000	-11.6707
cting	-11.6707
▁Phillips	-11.6709
▁sect	-11.6715
▁voter	-11.6715
▁swamp	-11.672
▁robot	-11.672
▁Cro	-11.672
▁condemn	-11.6722
▁funnel	-11.6722
▁poker	-11.6723
▁Caliph	-11.6723
▁RAW	-11.6723
▁counterpart	-11.6724
▁coral	-11.6724
▁hook	-11.6725
▁Cherokee	-11.6726
▁col	-11.6729
▁sailor	-11.6731
▁Ru	-11.6731
ised	-11.6732
borough	-11.6733
▁regulate	-11.6735
▁Nepal	-11.6737
▁Mikhail	-11.6738
▁Thousand	-11.6739
▁complexity	-11.674
Beside	-11.6744
▁trailer	-11.6748
▁Pascal	-11.6749
▁westward	-11.6751
▁Historic	-11.6757
▁profit	-11.676
▁institute	-11.6762
▁Much	-11.6772
▁seas	-11.6773
▁350	-11.6775
ita	-11.678
▁onward	-11.6787
owski	-11.679
▁Gi	-11.6793
aldo	-11.6797
▁achievement	-11.6801
▁Seal	-11.6801
▁Scotia	-11.6802
▁Uruguay	-11.6805
▁Got	-11.6806
▁Liga	-11.681
▁induction	-11.681
▁revis	-11.6811
▁blend	-11.6814
▁pond	-11.6816
▁Oriental	-11.6817
▁humor	-11.682
▁peanut	-11.6821
▁senator	-11.6821
▁Voldemort	-11.6823
▁flour	-11.6823
▁genome	-11.6824
▁perennial	-11.6824
aise	-11.6825
▁Wikimedia	-11.6826
▁Lahore	-11.6826
front	-11.6827
▁Citrus	-11.6827
▁theologian	-11.6827
▁Finance	-11.6828
▁illustration	-11.6828
1818	-11.6828
Mary	-11.6829
▁PDF	-11.6829
▁Volume	-11.6829
▁WB	-11.6833
GameCube	-11.6834
osaurus	-11.6836
liest	-11.6837
▁Kingston	-11.6837
▁decree	-11.6842
▁Bark	-11.6849
▁Twenty	-11.6851
▁140	-11.6852
▁exploit	-11.6854
▁Gun	-11.6854
▁worker	-11.6859
▁Nero	-11.6866
▁refuse	-11.6867
▁Weber	-11.6874
▁vegetati	-11.6874
▁popularly	-11.6879
▁Holly	-11.6881
hi	-11.6882
zon	-11.6883
▁Wave	-11.6886
▁emotion	-11.689
mail	-11.6891
▁KG	-11.6891
▁Low	-11.6895
▁instant	-11.6895
▁Mask	-11.6897
▁odd	-11.6899
▁witness	-11.6903
▁initiat	-11.6907
▁thread	-11.6908
▁programme	-11.6908
▁publications	-11.6909
▁diagram	-11.6912
Connor	-11.6913
▁Aztec	-11.6914
right	-11.6914
1998/	-11.6919
Marie	-11.6919
▁dialogue	-11.6921
▁rainforest	-11.6921
▁tribute	-11.6921
▁federation	-11.6921
▁combustion	-11.6921
▁framework	-11.6922
two	-11.6923
▁excellent	-11.6923
▁Whig	-11.6924
▁BMW	-11.6925
▁Danube	-11.6926
▁dictionary	-11.6926
▁globe	-11.6928
▁1816	-11.6932
▁doll	-11.6933
▁rodents	-11.6934
▁plateau	-11.6934
▁cultivat	-11.6936
▁Gai	-11.6937
▁survival	-11.6937
Railroad	-11.694
ammu	-11.694
▁throat	-11.694
ense	-11.6941
▁bow	-11.6945
▁Hyde	-11.6947
▁festivals	-11.695
00,000	-11.6951
ac	-11.6951
▁Notre	-11.6952
▁commentar	-11.6958
iro	-11.6968
▁Bahrain	-11.697
▁Lead	-11.6975
▁rooms	-11.6978
▁Agricultur	-11.6978
▁Steel	-11.698
recht	-11.6984
▁dy	-11.6987
ert	-11.6991
▁encompass	-11.6991
stanbul	-11.6995
▁Stoke	-11.6997
▁varied	-11.7
▁taxe	-11.7004
Denis	-11.7005
▁assign	-11.7005
▁valid	-11.7006
▁tide	-11.7006
▁Fir	-11.7008
75	-11.7014
▁50,000	-11.7014
▁1811	-11.7016
British	-11.7017
▁defence	-11.7018
Such	-11.7018
▁courses	-11.7018
hu	-11.7019
▁Prison	-11.7021
▁Ol	-11.7021
▁Cyprus	-11.7022
▁ambassador	-11.7022
▁summit	-11.7022
▁chassis	-11.7022
▁banana	-11.7022
▁Echidna	-11.7023
▁geography	-11.7023
▁Catalan	-11.7024
▁Stalin	-11.7024
▁prehistoric	-11.7025
▁Hinduism	-11.7026
▁friendship	-11.7026
▁feast	-11.7028
▁Index	-11.7028
▁Malay	-11.7028
▁parallelism	-11.7028
zawa	-11.703
▁ministers	-11.703
▁Hollow	-11.7033
▁1819	-11.7035
▁proton	-11.7035
▁genetics	-11.7038
▁wor	-11.7039
▁Andreas	-11.7041
▁inaugura	-11.7042
▁AFC	-11.7043
▁Freud	-11.7043
▁incorrect	-11.7044
▁daytime	-11.7045
▁Articles	-11.7054
▁bark	-11.7054
▁Miguel	-11.7055
▁Sex	-11.7055
▁Shark	-11.7055
▁modest	-11.7059
▁tales	-11.706
▁buses	-11.7062
nton	-11.7062
▁170	-11.7063
▁Klein	-11.7064
▁Mose	-11.7068
▁beam	-11.7069
▁MB	-11.7071
▁referee	-11.7071
ze	-11.7077
▁Ve	-11.7077
▁continuously	-11.7078
▁Mart	-11.7083
▁Bloc	-11.7086
▁slopes	-11.7091
▁respective	-11.7098
▁Wilm	-11.7106
▁Diamond	-11.7108
▁Gon	-11.711
▁profession	-11.7111
▁Belt	-11.7115
▁broadcaster	-11.7117
beak	-11.7122
▁stomach	-11.7124
▁remake	-11.7124
▁comprehensive	-11.7124
▁confusion	-11.7124
▁Senior	-11.7126
▁communicate	-11.7127
▁Wehrmacht	-11.7127
▁Savoy	-11.7129
esque	-11.713
▁click	-11.7133
▁Faith	-11.7133
▁Commissioner	-11.7135
▁Lancaster	-11.7136
▁Tristan	-11.7136
▁Cassini	-11.7136
▁Writer	-11.7139
▁metallic	-11.7139
▁Schu	-11.7141
▁circa	-11.7141
▁Haven	-11.7142
▁Figaro	-11.7144
▁autobiography	-11.7145
▁alloy	-11.7145
▁weld	-11.7145
▁lighter	-11.7147
▁Woods	-11.7149
finite	-11.7151
▁Tang	-11.7153
lingen	-11.7155
▁emotional	-11.7158
▁arc	-11.716
▁schedul	-11.7169
ok	-11.7171
▁Beech	-11.7174
Philippe	-11.7174
▁Serenit	-11.7174
▁Waters	-11.7174
▁File	-11.7179
2012	-11.718
haven	-11.7183
aid	-11.7186
Hav	-11.7188
▁Wing	-11.7192
▁Kenne	-11.7193
▁gravitational	-11.7194
▁OM	-11.7196
present	-11.72
▁eastward	-11.7207
▁1838	-11.7208
▁licens	-11.721
▁implementation	-11.7215
▁wa	-11.7216
▁linear	-11.7217
▁1805	-11.7221
▁discipline	-11.7223
▁telling	-11.7223
▁Georgian	-11.7224
white	-11.7224
▁1.4	-11.7225
▁Jam	-11.7227
▁knock	-11.7227
▁intention	-11.7227
▁Conservatory	-11.7227
▁Genocide	-11.7227
▁Nacional	-11.7227
▁narrator	-11.7228
Young	-11.7229
▁Bahama	-11.7229
▁Hertford	-11.723
▁sq	-11.723
▁Nitro	-11.7231
▁dictator	-11.7231
▁gr	-11.7231
▁transformation	-11.7231
▁Hampton	-11.7232
▁IBM	-11.7232
oriented	-11.7232
▁careful	-11.7232
▁Cinderella	-11.7232
▁abundant	-11.7233
▁creative	-11.7234
ru	-11.7236
▁elastic	-11.7241
▁lineup	-11.7244
▁delivery	-11.7246
▁Titus	-11.7247
▁Norwood	-11.725
▁Marilyn	-11.7251
runge	-11.7253
▁suggestion	-11.7255
▁IAU	-11.7256
▁adoption	-11.7256
▁pine	-11.7256
▁Var	-11.7258
▁arch	-11.7259
▁Dei	-11.7266
▁Milk	-11.7267
▁smok	-11.7267
ei	-11.7268
▁Guin	-11.7272
▁1797	-11.7272
▁Female	-11.7274
▁concerto	-11.7278
▁Jesse	-11.7281
▁Evans	-11.73
▁batter	-11.7301
▁operational	-11.7302
▁Chronicles	-11.7305
▁Ut	-11.7313
▁Rams	-11.7318
hurst	-11.732
▁Form	-11.7322
59	-11.7322
taka	-11.7323
▁permitt	-11.7324
Preston	-11.7324
▁membrane	-11.7326
▁hoped	-11.7327
▁rap	-11.7327
Japanese	-11.7329
▁homeless	-11.7329
▁comet	-11.7329
▁injuri	-11.733
▁lord	-11.7331
▁aquatic	-11.7331
▁confluence	-11.7331
▁array	-11.7332
▁Braun	-11.7334
▁missile	-11.7335
▁1795	-11.7335
▁tramway	-11.7335
▁Archipelago	-11.7335
▁listing	-11.7336
▁Tot	-11.7337
▁Metallica	-11.7337
lier	-11.7337
▁Furby	-11.7338
▁lit	-11.7341
▁bare	-11.7341
▁Knut	-11.7343
▁Alpha	-11.7343
▁beer	-11.7343
▁celebrations	-11.7344
craft	-11.7346
▁sseldorf	-11.7346
▁Dodger	-11.7348
▁associat	-11.735
▁Frost	-11.7351
▁Paper	-11.7354
▁attribut	-11.7356
▁postulate	-11.7356
▁Azad	-11.7357
▁announce	-11.7358
▁Jamie	-11.7358
span	-11.7359
▁Strong	-11.7362
▁Katrina	-11.7362
▁Ful	-11.7364
▁projection	-11.7366
▁1822	-11.7368
kar	-11.7372
27	-11.7373
▁airing	-11.7375
▁Hay	-11.7378
▁Sieg	-11.7388
▁landing	-11.739
ore	-11.7393
▁calculat	-11.7396
▁nicknam	-11.74
▁Mus	-11.74
▁Still	-11.7403
nasia	-11.7406
▁Yama	-11.7412
▁Cuban	-11.7412
▁Myster	-11.7423
eta	-11.7426
ncestry	-11.7426
▁Performance	-11.7432
▁abstract	-11.7432
Typical	-11.7433
▁1.2	-11.7433
▁pupils	-11.7434
founder	-11.7436
▁Pisa	-11.7436
▁Nottingham	-11.7437
▁helicopter	-11.7437
▁cryptographic	-11.7437
▁nutrient	-11.7437
▁Sassanid	-11.7437
▁suspension	-11.7437
▁twelfth	-11.7437
▁bushranger	-11.7438
▁quantit	-11.7438
▁Liszt	-11.7438
▁costume	-11.7439
▁erupt	-11.7439
▁vein	-11.7439
▁lightning	-11.7439
▁pawn	-11.744
▁inscription	-11.7441
▁licence	-11.7441
▁Freak	-11.7442
shima	-11.7443
▁placing	-11.7443
▁Crime	-11.7443
▁shapes	-11.7444
▁frog	-11.7446
▁collector	-11.7447
▁subway	-11.7448
▁equally	-11.7455
Gerhard	-11.7458
▁Ultimate	-11.7458
▁drov	-11.7459
larus	-11.746
▁regulations	-11.7462
Chapelle	-11.7463
▁habit	-11.7463
sley	-11.7466
,	-11.7466
▁Suzuk	-11.7468
ada	-11.7469
▁Basil	-11.7469
▁Hu	-11.7473
grid	-11.7477
hua	-11.7477
▁Sin	-11.7479
Red	-11.7481
▁128	-11.7481
▁experienc	-11.7482
▁Gor	-11.7482
▁Jets	-11.7482
▁physically	-11.7485
▁Access	-11.7486
ho	-11.7486
-19	-11.7489
ew	-11.7493
▁Arch	-11.7495
▁Dee	-11.7497
Not	-11.7499
lain	-11.7503
▁remark	-11.7504
▁filling	-11.7509
▁89	-11.7511
▁concentrat	-11.7513
▁liturg	-11.7516
▁Sala	-11.7517
ozoic	-11.7522
▁Sur	-11.7524
▁Wan	-11.7529
▁seriously	-11.753
▁Did	-11.7531
viruses	-11.7532
▁Episode	-11.7533
▁Rid	-11.7534
▁Kara	-11.7536
▁XVI	-11.7538
▁pray	-11.7539
lew	-11.7541
▁Benedict	-11.7541
▁Mughal	-11.7543
▁spectator	-11.7543
▁petroleum	-11.7544
▁sitting	-11.7544
▁Travelcard	-11.7545
▁Industry	-11.7545
▁Truman	-11.7545
▁submarine	-11.7545
▁Cromwell	-11.7546
▁tiger	-11.7546
▁Minneapolis	-11.7547
▁Obama	-11.7547
▁EMI	-11.7547
▁Warwickshire	-11.7548
▁texture	-11.7548
▁Catalonia	-11.7549
▁luxur	-11.7549
▁Household	-11.755
nia	-11.755
▁Worth	-11.7552
▁Leicester	-11.7552
▁Passion	-11.7553
▁Fisher	-11.7553
▁Morrison	-11.7554
▁Ave	-11.7559
▁Burnham	-11.7559
▁Liège	-11.756
▁Polo	-11.7561
▁MW	-11.7563
▁villain	-11.7565
▁planetary	-11.7566
▁manor	-11.7567
▁tobacco	-11.7572
utonomous	-11.7574
▁sharks	-11.7576
▁Players	-11.7577
▁Brandon	-11.7577
▁Mor	-11.7579
▁bigg	-11.7581
tland	-11.7583
▁Kiev	-11.759
▁privately	-11.7601
peg	-11.7602
▁clip	-11.7609
▁monks	-11.761
▁04	-11.7611
▁Taois	-11.7613
▁Fine	-11.7616
▁Carne	-11.7617
▁Antoine	-11.7618
end	-11.7621
▁Powell	-11.7625
▁optional	-11.7633
oku	-11.7633
▁sacrifice	-11.7633
▁Lenin	-11.7636
▁RG	-11.7637
▁algebra	-11.7637
▁drawings	-11.7639
▁deity	-11.7643
▁Koror	-11.7643
▁Lago	-11.7644
▁vitamin	-11.7644
▁Com	-11.7644
▁Title	-11.7645
▁3000	-11.7648
▁Golf	-11.765
▁kidney	-11.7651
▁disturbance	-11.7651
▁balloon	-11.7651
▁frac	-11.7651
▁theorist	-11.7652
▁smoke	-11.7653
▁trunk	-11.7653
▁Tulsa	-11.7653
▁Gas	-11.7653
▁decisive	-11.7654
▁1826	-11.7654
▁artwork	-11.7655
▁ecosystem	-11.7655
▁Tchaikovsky	-11.7656
▁Baader	-11.7656
▁Record	-11.7656
▁1813	-11.7659
▁Generation	-11.7659
▁Lama	-11.766
▁Publishing	-11.766
▁Metroid	-11.766
▁dual	-11.7661
tenham	-11.7663
ceae	-11.7663
▁Bears	-11.7664
▁surpass	-11.7665
▁Winston	-11.7666
53	-11.767
▁ITV	-11.767
▁Doug	-11.7671
ES	-11.7675
▁evolve	-11.7678
▁Flower	-11.7681
gli	-11.7681
title	-11.7684
hilde	-11.7685
▁Clara	-11.7686
▁Ashley	-11.7686
▁riots	-11.7689
▁magical	-11.769
▁definitions	-11.7691
▁Raven	-11.7697
▁Administrative	-11.7698
▁phases	-11.7705
shape	-11.7706
▁consumed	-11.7706
▁northward	-11.7711
▁Cars	-11.7712
sdorf	-11.7713
▁conclude	-11.7713
▁Sint	-11.7714
▁dishe	-11.7715
▁arid	-11.7716
▁Sunni	-11.7718
sar	-11.7722
▁Midwest	-11.7723
▁Kell	-11.7725
22	-11.7726
IDE	-11.7726
▁bag	-11.7727
ène	-11.7732
▁Sale	-11.7734
▁phenomena	-11.7736
▁Handel	-11.7739
▁Kazakhstan	-11.774
▁Arms	-11.7745
Mark	-11.7745
▁Programme	-11.7748
gee	-11.7754
apolis	-11.7755
▁Mil	-11.7758
▁dynamic	-11.7759
▁infinite	-11.7759
▁accompany	-11.7759
▁cardamom	-11.7759
▁Rebellion	-11.776
▁Anglia	-11.776
▁Bologna	-11.776
▁inheritance	-11.776
▁perception	-11.7761
Retrieve	-11.7761
▁Vatican	-11.7761
▁stamp	-11.7761
▁Voice	-11.7761
▁vampire	-11.7763
▁negotiation	-11.7764
▁demonstration	-11.7764
▁Animation	-11.7764
Using	-11.7767
▁Einstein	-11.7767
po	-11.7768
arium	-11.7768
▁Bus	-11.7769
▁Ballet	-11.7769
▁limb	-11.777
▁Galileo	-11.7774
▁Uncle	-11.7774
▁Andrews	-11.7775
▁beta	-11.7775
▁architectural	-11.7775
▁bo	-11.7777
08	-11.778
▁Cou	-11.778
▁Zack	-11.778
▁partners	-11.778
lpine	-11.7786
▁op	-11.7787
▁Shane	-11.7788
▁Study	-11.779
▁Berry	-11.779
evan	-11.7797
▁bees	-11.78
▁Feature	-11.7801
▁Mei	-11.7803
▁79	-11.7806
▁el	-11.7808
▁Webster	-11.7809
▁Cub	-11.7811
▁Snap	-11.7818
▁wool	-11.7825
▁Services	-11.7826
▁Bundes	-11.7827
▁listen	-11.7833
▁provision	-11.7838
2004	-11.7839
▁Drake	-11.7842
▁92	-11.7844
1997/	-11.7844
use	-11.7845
▁Hy	-11.7845
▁Might	-11.7847
▁curse	-11.785
▁Traditional	-11.785
▁trumpet	-11.7851
▁Stevens	-11.7861
eck	-11.7865
▁delta	-11.7867
▁potter	-11.7868
▁Belarus	-11.7868
▁disband	-11.7869
▁adjust	-11.7869
▁programmer	-11.787
▁mushroom	-11.787
▁revenue	-11.787
Religious	-11.787
▁departure	-11.787
▁sworn	-11.7871
▁Elephant	-11.7871
▁unrelated	-11.7871
▁ammonia	-11.7871
▁athlete	-11.7872
▁attendance	-11.7872
▁Granada	-11.7872
▁Sardinia	-11.7872
▁Penguin	-11.7873
64	-11.7873
▁wavelength	-11.7874
▁Kurdis	-11.7874
▁1784	-11.7874
▁Tyne	-11.7876
▁Rural	-11.7876
▁Branch	-11.7876
▁Fitzgerald	-11.7877
▁vaccine	-11.7879
▁broadly	-11.788
▁Cricket	-11.788
▁Duncan	-11.7881
▁dia	-11.7881
▁MIT	-11.7883
▁LP	-11.7884
▁122	-11.7888
undra	-11.7892
▁Mercedes	-11.7892
▁portable	-11.7892
mar	-11.7893
▁shoes	-11.7894
▁Miranda	-11.7894
▁locally	-11.7896
▁Archer	-11.7899
▁Support	-11.79
▁highland	-11.7903
ural	-11.7904
▁Lakes	-11.7905
▁Talk	-11.7905
▁ha	-11.7906
▁Pichilemu	-11.7911
▁Laura	-11.7912
nitz	-11.7913
▁Parade	-11.7918
▁Jun	-11.7918
oba	-11.7924
▁arrange	-11.7924
▁Xena	-11.7925
▁bomber	-11.7927
fall	-11.7928
▁Glad	-11.793
anne	-11.793
▁Among	-11.7932
▁Toro	-11.7932
ves	-11.7935
▁Magnus	-11.7942
▁variants	-11.7943
▁71	-11.7947
locked	-11.7949
itus	-11.7952
▁Bald	-11.7952
▁bombings	-11.7953
▁750	-11.7955
▁Christophe	-11.7955
▁Parr	-11.7962
▁resist	-11.7962
▁Personal	-11.7963
▁meanings	-11.7964
▁Punjabi	-11.7968
▁ascend	-11.7969
▁fatal	-11.7973
▁Nicole	-11.7973
▁styl	-11.7974
▁Cartoon	-11.7975
▁arise	-11.7978
▁decreas	-11.798
▁adjective	-11.798
▁dessert	-11.7981
▁regain	-11.7981
▁radar	-11.7981
▁geometric	-11.7981
▁Etruscan	-11.7981
▁saffron	-11.7981
▁Chili	-11.7981
▁grape	-11.7982
▁completion	-11.7982
▁reduction	-11.7982
▁striking	-11.7983
▁bulk	-11.7983
▁Rupert	-11.7985
Juan	-11.7985
▁expell	-11.7986
▁sled	-11.7986
▁timber	-11.7986
▁counting	-11.7987
▁fever	-11.7987
▁recurr	-11.7988
▁Philosophy	-11.7988
▁proceed	-11.799
▁critically	-11.799
▁Amy	-11.7993
▁Style	-11.7993
▁paste	-11.7994
▁Reformation	-11.7998
▁Rowling	-11.7998
▁Adult	-11.8006
▁achievements	-11.8007
dar	-11.801
form	-11.8011
▁Marsh	-11.8012
lin	-11.8012
▁wake	-11.8012
ii	-11.8013
▁Sc	-11.8018
▁Hiro	-11.8023
▁myth	-11.8024
▁Char	-11.8026
▁shorts	-11.8033
Tunes	-11.8033
06	-11.8035
▁nut	-11.8049
sberg	-11.8049
lo	-11.8052
ickey	-11.8052
▁Graf	-11.8052
▁mall	-11.8053
gie	-11.8056
▁educate	-11.8056
▁IRC	-11.8058
▁Leone	-11.8059
▁Tong	-11.8063
▁bend	-11.8065
▁complet	-11.8066
05	-11.8068
▁pupil	-11.8076
▁withdraw	-11.8076
▁roe	-11.8081
▁Follow	-11.8081
cross	-11.8086
▁Casal	-11.8087
llo	-11.8088
▁autonom	-11.8089
▁acknowledge	-11.8091
▁Locarn	-11.8093
▁lobster	-11.8093
▁Companion	-11.8093
▁decease	-11.8093
▁swallow	-11.8093
▁narrative	-11.8093
bound	-11.8093
▁Territories	-11.8093
▁declaration	-11.8094
▁wireless	-11.8094
▁Galaxy	-11.8094
▁Brussels	-11.8095
▁Macquari	-11.8095
▁reddish	-11.8095
▁Bronze	-11.8095
▁Europa	-11.8096
▁Starr	-11.8096
▁trend	-11.8097
▁Kin	-11.8097
▁affair	-11.8098
▁pigment	-11.8098
▁Paradise	-11.8098
▁Purple	-11.81
▁Sox	-11.81
▁beverage	-11.8101
▁Plot	-11.8102
▁Brittany	-11.8102
▁mercury	-11.8104
▁requirements	-11.8104
▁Active	-11.8105
acao	-11.8105
▁upgrade	-11.8105
▁Tennis	-11.8106
Prince	-11.8109
▁Michelangelo	-11.8111
▁missionary	-11.8112
uk	-11.8113
▁Orion	-11.8114
▁Allah	-11.8114
▁intensive	-11.8116
▁Marge	-11.8119
▁Why	-11.8119
▁Hopkins	-11.812
▁nominations	-11.8122
▁trapp	-11.8122
▁specialist	-11.8123
7,000	-11.8124
▁Giusepp	-11.8128
▁Eva	-11.813
▁Lorraine	-11.813
▁promis	-11.8134
tar	-11.8138
▁Kat	-11.8144
AF	-11.8146
▁Kati	-11.8147
▁Further	-11.8147
▁Harbor	-11.8148
▁thermodynamics	-11.8154
▁Perr	-11.8155
▁Say	-11.8156
▁recall	-11.8164
▁Larr	-11.8165
▁Attack	-11.8169
▁Rodrigue	-11.817
ante	-11.8176
▁Wide	-11.8187
▁Austro	-11.8194
▁fix	-11.8194
pin	-11.8195
produced	-11.82
▁Want	-11.82
▁blog	-11.8206
▁kinetic	-11.8206
▁uranium	-11.8206
▁spontaneous	-11.8206
▁geyser	-11.8206
▁Flair	-11.8207
▁routine	-11.8207
▁Messenger	-11.8207
▁Plateau	-11.8207
▁motorcycle	-11.8207
▁monkey	-11.8208
▁recruit	-11.8208
▁Nice	-11.821
▁archaeologist	-11.821
▁Lima	-11.8211
▁chancellor	-11.8212
▁privilege	-11.8212
▁cliff	-11.8212
▁parasite	-11.8212
▁textbook	-11.8212
▁Sikh	-11.8213
▁Tiberius	-11.8214
Where	-11.8217
▁shrubs	-11.8218
▁elite	-11.8219
▁reader	-11.8219
▁Scandinavian	-11.8219
▁Twelve	-11.8219
▁Chapter	-11.822
▁Adobe	-11.8222
▁similarly	-11.8223
tal	-11.8224
operation	-11.8225
▁Colony	-11.823
▁Climate	-11.8233
▁indoor	-11.8236
▁Bali	-11.8236
▁guards	-11.8237
rix	-11.8239
▁enabl	-11.8241
▁Lars	-11.8241
▁Jennifer	-11.8243
▁partial	-11.8245
▁tight	-11.8246
▁benefits	-11.8249
zhou	-11.8249
▁Casp	-11.8252
-2	-11.8258
pez	-11.8261
cles	-11.8266
tailed	-11.8268
▁Round	-11.827
▁inaugurat	-11.8271
20	-11.8272
ired	-11.8274
eux	-11.8282
wheel	-11.8282
▁boss	-11.8285
▁Around	-11.8289
▁integrate	-11.829
▁Students	-11.8291
▁Ark	-11.8293
▁86	-11.831
▁mistake	-11.8313
▁impress	-11.8317
▁dispos	-11.8317
▁prohibit	-11.8318
▁pregnan	-11.8318
green	-11.8321
▁Jesuit	-11.8322
▁ecological	-11.8322
▁Occitan	-11.8323
,500	-11.8324
▁mistress	-11.8324
▁vagina	-11.8326
▁judicial	-11.8326
▁Conductor	-11.8328
▁Brunswick	-11.8328
rest	-11.8329
▁SR	-11.8329
▁1782	-11.8329
▁anarchist	-11.8329
emann	-11.833
▁thrash	-11.833
Avon	-11.833
▁Lords	-11.8332
lia	-11.8335
▁animator	-11.8336
▁appoint	-11.8336
▁ka	-11.8337
▁Michel	-11.834
▁princess	-11.834
▁Scientific	-11.8341
▁payment	-11.8343
▁ferry	-11.8344
mu	-11.8344
▁pagan	-11.8346
▁Primary	-11.8347
▁Saints	-11.8348
▁Caroline	-11.8348
▁Counties	-11.8349
▁genital	-11.835
▁Denis	-11.8351
▁witch	-11.8357
▁Different	-11.836
▁Emily	-11.836
▁Viva	-11.8366
▁Sino	-11.8368
witt	-11.8371
▁Brain	-11.8374
▁Yer	-11.8376
▁Reformed	-11.8378
▁Moss	-11.8378
ari	-11.8378
▁ch	-11.838
▁Cast	-11.838
▁den	-11.8383
aux	-11.8383
▁Make	-11.8384
▁burrow	-11.8387
▁Artists	-11.8388
▁pub	-11.8389
see	-11.8391
▁Cao	-11.8397
▁hanged	-11.84
▁CM	-11.8404
▁aka	-11.8405
▁IRA	-11.8405
▁Mada	-11.8407
lets	-11.8407
▁Bever	-11.841
▁Tam	-11.8414
48	-11.8415
▁flags	-11.8415
▁settings	-11.8416
▁Mak	-11.8417
▁Right	-11.842
▁Satan	-11.8423
▁ra	-11.8423
▁Speedwa	-11.8424
▁cycles	-11.843
▁teenage	-11.8431
lecommunications	-11.8434
uckland	-11.8435
▁hollow	-11.8436
40,000	-11.8436
▁tectonic	-11.8438
▁squid	-11.8438
▁prolific	-11.8438
▁crustacean	-11.8438
▁Airbender	-11.8438
▁Andr	-11.8438
▁cavalry	-11.8439
▁Sim	-11.8439
▁vital	-11.844
▁introduc	-11.844
▁Catarina	-11.844
▁Cowboy	-11.8441
▁tenure	-11.8442
▁certification	-11.8442
▁1827	-11.8442
▁supplement	-11.8443
▁aggressive	-11.8443
▁Nirvana	-11.8443
▁Chamberlain	-11.8443
▁contender	-11.8444
▁casual	-11.8444
▁hectare	-11.8445
▁Banks	-11.8445
▁Turkic	-11.8446
▁objective	-11.8446
▁thriller	-11.8446
▁Galicia	-11.8447
governmental	-11.8448
▁YouTube	-11.8448
Now	-11.845
▁Dodd	-11.845
▁Rabbit	-11.845
▁deliberate	-11.845
▁Norton	-11.845
▁Johnston	-11.8451
▁1.6	-11.8452
▁Crazy	-11.8454
pox	-11.8454
▁recogniz	-11.8454
▁contribution	-11.8454
▁Ike	-11.8457
▁holder	-11.8462
▁Alien	-11.8462
cm	-11.8471
match	-11.8473
▁Mm	-11.8483
rwin	-11.8485
▁Chat	-11.8486
glass	-11.8487
▁Trains	-11.849
▁Body	-11.849
▁Northampton	-11.8495
▁Chan	-11.8495
osa	-11.8497
▁rows	-11.8498
▁encourag	-11.8499
▁Roberts	-11.8501
page	-11.8502
▁Cyber	-11.8502
▁Jake	-11.8506
95	-11.8508
▁linguistics	-11.851
▁Christin	-11.8514
▁Chance	-11.8519
▁flourish	-11.8522
▁Vera	-11.8522
yard	-11.8524
You	-11.8525
▁refuge	-11.8526
▁Augusta	-11.8529
▁suppli	-11.853
evich	-11.8531
▁Ji	-11.8532
▁101	-11.8533
▁Picca	-11.8537
▁Abdul	-11.8538
▁Pak	-11.8544
▁emperors	-11.8545
▁logarithm	-11.8548
▁Drivers	-11.855
▁knee	-11.8551
▁diabet	-11.8551
▁intelligen	-11.8554
▁ceiling	-11.8555
▁supermarket	-11.8555
▁Saffir	-11.8556
▁distant	-11.8556
▁tru	-11.8556
▁guarantee	-11.8556
▁Cow	-11.8556
▁Methodist	-11.8556
▁airplane	-11.8556
▁cyclist	-11.8556
▁Conservatoire	-11.8556
▁arithmetic	-11.8557
▁Protocol	-11.8557
▁Zürich	-11.8557
▁Gandhi	-11.8561
▁Give	-11.8561
▁investigat	-11.8561
▁Glacier	-11.8563
Massacre	-11.8563
▁integral	-11.8563
▁lifestyle	-11.8563
▁glove	-11.8563
▁Chiba	-11.8563
▁reactor	-11.8564
▁calculation	-11.8566
▁burst	-11.8566
▁conscious	-11.8567
▁Solomon	-11.8568
▁Colonel	-11.857
▁Alvin	-11.8573
▁Complete	-11.8574
▁Herman	-11.8574
▁brave	-11.8575
for	-11.8578
▁Killer	-11.8578
▁chant	-11.8581
▁Fund	-11.8582
▁Fey	-11.8584
ancy	-11.8585
▁Josef	-11.8586
▁stretche	-11.8587
▁Eisen	-11.8589
▁Fighting	-11.8589
stage	-11.8591
▁Than	-11.8595
▁Qur	-11.8596
▁collaborat	-11.8596
▁encompasse	-11.8597
▁Sacr	-11.86
▁Von	-11.86
▁corners	-11.8602
▁Joey	-11.8602
▁Winni	-11.8604
▁Nara	-11.8612
▁Save	-11.8612
FC	-11.8613
ery	-11.8615
▁diamond	-11.8616
1995/	-11.8619
▁MS	-11.8622
▁marble	-11.8623
▁relate	-11.8624
▁Corner	-11.8625
▁Sagan	-11.8626
▁Paran	-11.8626
▁gum	-11.8629
RC	-11.8635
▁Malt	-11.8636
▁annex	-11.864
ault	-11.8645
▁exhaust	-11.8649
▁Quartet	-11.8652
▁employer	-11.8653
king	-11.8656
▁Shro	-11.8658
▁Corn	-11.8659
▁wheels	-11.8665
▁prais	-11.867
▁Zagreb	-11.8674
▁vocabular	-11.8674
▁Bundestag	-11.8674
▁nebula	-11.8675
▁Celsius	-11.8675
▁marsupial	-11.8676
▁gust	-11.8677
▁chorus	-11.8678
▁carnivor	-11.8678
▁jointly	-11.8678
▁navigation	-11.8679
▁Pride	-11.8679
▁fires	-11.8681
▁regardless	-11.8681
▁emission	-11.8681
gen	-11.8682
▁McDonald	-11.8683
▁woodland	-11.8684
▁Emma	-11.8687
▁Reef	-11.8688
fusion	-11.8692
focal	-11.8692
▁crest	-11.8698
▁Gabrielle	-11.8699
▁Penny	-11.8704
▁Things	-11.8704
lle	-11.8705
▁Has	-11.8706
▁aboard	-11.871
ork	-11.8711
▁Wa	-11.8716
Jos	-11.8718
▁Silen	-11.872
▁butterfly	-11.8722
▁bars	-11.8722
▁Classics	-11.8724
▁Proms	-11.8728
Marc	-11.8729
ais	-11.8735
▁Hi	-11.8735
room	-11.8735
▁Nu	-11.8737
1996/	-11.8739
▁readi	-11.8741
▁seasonal	-11.8746
▁dolphins	-11.8746
ander	-11.8748
▁favorabl	-11.8748
▁interesting	-11.8757
▁USS	-11.876
▁Balochis	-11.876
▁CF	-11.8761
▁manual	-11.8762
▁approve	-11.8762
▁lighting	-11.8767
▁jail	-11.8769
▁hir	-11.877
▁Model	-11.877
garten	-11.8773
▁Kon	-11.8785
etta	-11.8787
▁Halo	-11.8787
▁Aqua	-11.8787
▁bore	-11.8789
ston	-11.8794
96	-11.8795
▁anatomy	-11.8795
▁colleague	-11.8795
▁Anatolia	-11.8795
▁supreme	-11.8795
▁Shuttle	-11.8795
▁cereal	-11.8796
▁Invasion	-11.8797
▁1707	-11.8798
▁iodine	-11.8798
▁syllable	-11.8799
54	-11.88
▁Faso	-11.88
▁Heidelberg	-11.88
▁Elisabeth	-11.8801
▁Marseille	-11.8801
▁Lavigne	-11.8801
▁Dw	-11.8801
▁Dawn	-11.8802
▁disturb	-11.8803
DC	-11.8804
▁clause	-11.8805
▁Bergen	-11.8808
purpose	-11.8809
French	-11.8809
▁teau	-11.8809
▁cubic	-11.8811
▁Karna	-11.8811
▁lady	-11.8812
▁Dame	-11.8812
88	-11.8813
▁joke	-11.8814
▁licenses	-11.8815
▁Lex	-11.8816
▁Ze	-11.8816
▁guitars	-11.8819
▁Armor	-11.8819
▁Mello	-11.882
▁Height	-11.8824
▁oversee	-11.8824
We	-11.8828
▁plaintext	-11.8829
▁pounds	-11.8833
▁rebuild	-11.8834
▁addresses	-11.8835
▁Ber	-11.8836
▁methan	-11.8838
dai	-11.884
▁www	-11.8842
▁Cities	-11.8844
▁Rules	-11.8845
▁se	-11.8846
▁Bug	-11.8849
bal	-11.885
▁consoles	-11.885
▁rolling	-11.8853
▁nave	-11.8854
▁seize	-11.8855
▁Was	-11.8858
▁Watch	-11.886
▁bunker	-11.886
ning	-11.8866
▁postal	-11.8866
color	-11.8872
▁Eye	-11.8879
▁113	-11.8881
Back	-11.8884
▁convicts	-11.8886
▁Ser	-11.889
▁Goth	-11.8891
▁Davie	-11.8891
▁resource	-11.8895
ries	-11.8899
▁Abel	-11.8908
▁Jericho	-11.8911
▁renew	-11.8914
▁assert	-11.8915
▁peasant	-11.8915
▁synonym	-11.8915
▁Mesopotamia	-11.8917
▁eponymous	-11.8917
▁Canyon	-11.8917
▁Toledo	-11.8917
▁quiet	-11.8917
Beautiful	-11.8917
▁Enterprise	-11.8918
▁embass	-11.8918
▁invertebrate	-11.8918
▁uprising	-11.8918
▁Segund	-11.892
▁demonstrat	-11.892
▁sonata	-11.8921
▁Need	-11.8921
▁revert	-11.8929
Germain	-11.893
▁Sk	-11.8932
▁builder	-11.8935
uchi	-11.8935
▁Cosworth	-11.8935
▁Sevill	-11.8936
Green	-11.8937
▁successive	-11.8938
▁Leigh	-11.8939
▁82	-11.894
▁greenhouse	-11.894
▁Audio	-11.8941
▁GPL	-11.8941
▁creature	-11.8942
ache	-11.8942
▁maint	-11.8945
,000,000	-11.8945
▁Stern	-11.8945
▁patch	-11.8947
ue	-11.8947
▁intensifi	-11.8949
▁jar	-11.8949
▁reli	-11.895
▁Hello	-11.8953
▁masse	-11.8954
▁inch	-11.8955
▁sack	-11.8957
▁NY	-11.8958
▁Weekly	-11.8959
etti	-11.8959
ou	-11.8961
▁Kal	-11.8961
▁Amherst	-11.8963
▁Room	-11.8964
▁0.1	-11.8964
▁directors	-11.8966
▁Beth	-11.8971
▁coordinat	-11.8972
▁Track	-11.8972
63	-11.898
▁Om	-11.8981
▁yards	-11.8982
▁nitrat	-11.8986
▁Booker	-11.8987
▁Raj	-11.8992
▁chronic	-11.8995
▁Belgra	-11.8996
33	-11.8998
▁Associate	-11.9002
▁Male	-11.9003
▁rent	-11.9009
▁coordinates	-11.901
▁graphical	-11.9013
▁Harding	-11.9018
▁complicat	-11.9026
▁rated	-11.9027
▁Herod	-11.9029
▁Corsica	-11.9032
formally	-11.9034
▁commercials	-11.9034
nock	-11.9034
▁dramas	-11.9039
▁optic	-11.9039
▁Palestin	-11.9039
▁Trinidad	-11.904
▁crocodile	-11.904
▁libraries	-11.904
▁coefficient	-11.904
▁pancake	-11.904
▁Shanghai	-11.9041
▁albedo	-11.9041
▁discontinu	-11.9041
▁Juventu	-11.9041
▁FBI	-11.9042
▁guideline	-11.9043
▁Stirling	-11.9044
▁ceramic	-11.9044
▁Goethe	-11.9044
▁Mecca	-11.9045
▁Universities	-11.9046
▁Friend	-11.9046
▁punish	-11.9047
▁Yas	-11.9047
▁XI	-11.9047
▁Rem	-11.9047
▁commemorat	-11.9049
▁Navarre	-11.9051
▁Hermione	-11.9052
▁Peach	-11.9053
▁knife	-11.9054
ification	-11.9055
Port	-11.9055
Simpson	-11.9057
▁Coach	-11.9057
Karl	-11.9057
▁Duff	-11.9058
AC	-11.9059
▁Disc	-11.906
kind	-11.9063
▁sensitive	-11.9064
▁compose	-11.9065
▁inhabit	-11.9066
▁observer	-11.907
▁Cork	-11.907
▁Release	-11.9074
▁proven	-11.9074
ku	-11.9075
sson	-11.9075
▁ethic	-11.9077
▁torture	-11.9078
▁Para	-11.9079
▁Films	-11.9079
▁4.5	-11.9079
▁Double	-11.9079
▁1780	-11.9079
▁Erich	-11.908
ff	-11.9082
▁ash	-11.9085
▁Julie	-11.9088
▁lungs	-11.9098
▁billiard	-11.9099
▁approache	-11.9101
▁NT	-11.9104
▁Chin	-11.9106
▁psychiatr	-11.9106
ad	-11.911
▁Odd	-11.9111
ren	-11.9111
mate	-11.9112
▁Isles	-11.9116
▁oval	-11.9117
▁receiver	-11.9118
▁Massa	-11.9121
nix	-11.9123
▁Fredd	-11.9125
83	-11.913
▁attractions	-11.9132
▁Jar	-11.9132
▁Artur	-11.9133
▁obvious	-11.9134
▁Buxt	-11.9135
▁loose	-11.9141
wald	-11.9144
▁Raffles	-11.9145
▁Julia	-11.9149
▁flora	-11.9149
▁nuclei	-11.9149
▁cookie	-11.915
▁Patro	-11.9151
thology	-11.9154
▁eighteen	-11.9158
▁Bennet	-11.9158
▁Darling	-11.9158
94	-11.9159
lavic	-11.9164
▁furni	-11.9164
▁Burkina	-11.9164
▁Belfast	-11.9165
▁precursor	-11.9165
▁Defence	-11.9165
▁dinner	-11.9165
▁friction	-11.9166
▁rumor	-11.9166
▁screenplay	-11.9167
▁evergreen	-11.9167
▁Piedmont	-11.9167
▁botanist	-11.9168
▁Angelico	-11.9168
▁Milwaukee	-11.9169
▁mis	-11.9169
▁Telescope	-11.917
▁attitude	-11.9171
▁heavyweight	-11.9171
▁Sparta	-11.9172
▁melodic	-11.9172
▁1828	-11.9172
▁innovation	-11.9172
▁madrigal	-11.9173
▁nationalist	-11.9173
▁publishe	-11.9175
▁observe	-11.9175
▁Mills	-11.9177
▁valve	-11.9183
ros	-11.9185
▁Stockport	-11.9185
adventure	-11.9186
▁depiction	-11.9186
Never	-11.9188
▁Forum	-11.919
▁Helena	-11.9191
▁Encyclop	-11.9195
▁vegetable	-11.9196
▁infantry	-11.9199
▁BSD	-11.9201
▁Bass	-11.9204
▁Honduras	-11.9205
▁Sign	-11.9206
▁Anders	-11.9208
mania	-11.9211
▁Jak	-11.9212
Mont	-11.9219
maker	-11.9221
party	-11.9222
▁execute	-11.9225
ns	-11.9227
iano	-11.9232
▁Brand	-11.9233
▁harmon	-11.9235
▁Nathan	-11.9235
▁Papa	-11.924
1994/	-11.9244
▁composite	-11.9247
▁surfaces	-11.9247
▁pseudo	-11.9247
▁choral	-11.9248
▁invest	-11.9248
link	-11.9253
▁grey	-11.9262
▁Ere	-11.9264
▁Lev	-11.9265
▁severely	-11.9267
ud	-11.9268
▁tactic	-11.9269
▁Economics	-11.927
▁Communications	-11.9273
▁drops	-11.9274
▁isolate	-11.9278
stan	-11.9279
speed	-11.928
▁constantly	-11.9283
▁flame	-11.9284
▁Pilot	-11.9286
▁Norri	-11.9289
▁entrepreneur	-11.9292
▁Jubilee	-11.9292
▁divisor	-11.9293
▁dawn	-11.9293
▁psychologist	-11.9293
▁Beeton	-11.9293
▁Commerce	-11.9293
▁Senegal	-11.9293
▁Armenians	-11.9293
▁faint	-11.9294
▁Oasis	-11.9294
▁Domini	-11.9295
▁Bowie	-11.9297
consensu	-11.9297
▁relevan	-11.9298
▁fraud	-11.9298
▁Geoffr	-11.9299
▁workshop	-11.9299
flow	-11.9299
▁Sullivan	-11.9299
▁servers	-11.93
▁Holmes	-11.9301
▁unexpected	-11.9301
▁Worcester	-11.9301
▁Flames	-11.9302
told	-11.9302
▁Fraser	-11.9305
▁Dover	-11.9305
▁Faust	-11.9305
▁protector	-11.9306
▁infra	-11.9307
▁Countries	-11.9307
har	-11.9307
▁1814	-11.931
Alternative	-11.9312
▁ciphertext	-11.9312
Western	-11.9312
▁Nigerian	-11.9313
President	-11.9314
▁Chun	-11.9314
▁cdot	-11.9319
▁AS	-11.932
▁Spa	-11.9324
▁Chronicle	-11.9327
▁masters	-11.9327
DP	-11.933
▁Donna	-11.9331
▁victim	-11.9331
▁carv	-11.9333
Choice	-11.9334
ric	-11.9337
▁147	-11.9338
▁hanging	-11.9341
▁Flora	-11.9343
▁Parish	-11.9346
ado	-11.9347
atrix	-11.9351
▁hospitals	-11.9359
▁Valer	-11.9359
▁menu	-11.936
▁freely	-11.9361
Michel	-11.9363
▁Ye	-11.9363
cock	-11.9363
▁Evan	-11.9366
▁102	-11.9366
▁solely	-11.9368
▁Universit	-11.9369
▁mono	-11.9372
Christophe	-11.9376
nell	-11.9378
▁Seth	-11.9378
Co	-11.9381
▁spy	-11.9383
lash	-11.9383
track	-11.9389
break	-11.939
▁Liberati	-11.9407
▁Rip	-11.9408
▁Yass	-11.9414
▁bigge	-11.9416
▁163	-11.9419
▁cultivar	-11.942
▁Bolivia	-11.942
▁absent	-11.942
▁Gilgit	-11.9421
▁consonant	-11.9421
▁cartoonist	-11.9421
▁1.0	-11.9422
▁cube	-11.9422
▁Penguins	-11.9422
▁reggae	-11.9422
▁Regiment	-11.9422
▁noodle	-11.9422
▁Tolkien	-11.9423
▁commuter	-11.9424
▁stamps	-11.9424
▁peripheral	-11.9424
▁underwear	-11.9424
▁Treasure	-11.9425
▁Danzig	-11.9425
▁McClane	-11.9425
▁mood	-11.9425
ornis	-11.9425
▁Gibraltar	-11.9426
▁Constable	-11.9427
▁Avery	-11.9427
▁Hera	-11.9429
▁Burgess	-11.943
▁Jeremy	-11.943
▁Destiny	-11.9431
▁Bash	-11.9431
▁legac	-11.9432
wear	-11.9433
▁Bradley	-11.9433
▁Saskat	-11.9433
▁ease	-11.9436
vidence	-11.9436
▁Thirty	-11.9439
▁Monica	-11.944
▁lineage	-11.9441
▁Foster	-11.9442
Elizabeth	-11.9442
▁Planck	-11.9442
Death	-11.9442
▁Archive	-11.9442
▁Tsu	-11.9444
ors	-11.9445
▁draws	-11.9445
▁Ren	-11.9447
yson	-11.9447
▁Dun	-11.9449
▁relat	-11.945
▁Annie	-11.9453
▁rivalr	-11.9453
▁Guardian	-11.9454
▁quote	-11.9455
▁Meteorologic	-11.9456
▁deem	-11.9457
▁Please	-11.9464
▁Outer	-11.9464
▁Elector	-11.9468
eau	-11.9471
▁Paraguay	-11.9472
▁suppress	-11.9475
▁Za	-11.9478
part	-11.9479
▁relegat	-11.948
▁elevat	-11.9482
▁Tor	-11.9485
▁pi	-11.9486
▁Curtis	-11.9488
▁Vo	-11.9489
▁Multi	-11.949
▁1,500	-11.9491
▁Wear	-11.9493
ety	-11.9494
▁Rings	-11.9496
▁Angola	-11.9496
▁edits	-11.9499
▁drown	-11.95
▁clade	-11.951
▁Thil	-11.9511
▁emerge	-11.9511
▁Sien	-11.9515
▁Crew	-11.9517
▁Champ	-11.9521
▁messag	-11.9523
ith	-11.9523
72	-11.9524
▁Ono	-11.953
▁investigate	-11.953
▁Nicaragua	-11.9538
▁magnet	-11.9541
▁conceiv	-11.9541
▁Mur	-11.9544
▁Dant	-11.9544
▁declin	-11.9549
▁specially	-11.9549
▁consequent	-11.9549
▁Facult	-11.955
▁Treasury	-11.955
▁artifact	-11.955
▁garage	-11.955
▁nocturn	-11.955
▁fungi	-11.955
▁antagonist	-11.9551
für	-11.9551
▁Sutton	-11.9552
▁polymer	-11.9553
▁Gibson	-11.9553
stellar	-11.9553
▁bullet	-11.9554
entities	-11.9556
▁Bert	-11.9556
▁Qatar	-11.9556
▁citrus	-11.9557
▁summary	-11.9558
▁Marion	-11.9558
▁sixty	-11.9559
▁Matild	-11.956
▁Principle	-11.956
▁Conservation	-11.9561
▁Seymour	-11.9562
▁evangelist	-11.9562
▁Vietnamese	-11.9563
▁Castro	-11.9563
election	-11.9563
▁Winchester	-11.9563
▁divorc	-11.9565
▁Jungle	-11.9565
▁Nai	-11.9567
▁Politics	-11.9568
▁engraving	-11.9568
▁Macrop	-11.9569
fo	-11.957
Württemberg	-11.9572
▁Alb	-11.9573
Emperor	-11.9574
brown	-11.9574
▁Euclid	-11.9577
MS	-11.9577
▁Ward	-11.9577
▁Lambert	-11.9581
▁proxim	-11.9582
▁comparabl	-11.9583
▁Moor	-11.9585
contested	-11.9585
▁Carroll	-11.9586
ans	-11.9591
ledon	-11.9593
Donnell	-11.9594
▁4,000	-11.9599
▁Divin	-11.96
▁Guang	-11.96
▁Bengali	-11.9601
▁Classification	-11.9602
Pro	-11.9604
▁Dhab	-11.9604
Lee	-11.9605
▁Hispani	-11.9605
▁pod	-11.9606
▁fa	-11.9607
▁universally	-11.9608
berra	-11.9608
▁Fitz	-11.9609
▁TN	-11.9612
ague	-11.9615
▁Im	-11.9621
▁Giro	-11.9622
▁geolog	-11.9622
are	-11.9624
▁Wat	-11.9628
▁coaster	-11.9631
wil	-11.9632
▁RT	-11.9632
▁copi	-11.9642
▁compatib	-11.9646
▁Pears	-11.965
▁aunt	-11.965
▁Type	-11.965
▁6,000	-11.9654
▁developer	-11.9655
▁Brit	-11.9662
ified	-11.9667
▁Hex	-11.9667
▁Pit	-11.9676
▁contexts	-11.9678
door	-11.9679
▁cephalopod	-11.9681
▁plague	-11.9681
▁coronation	-11.9682
▁intercourse	-11.9682
▁reservoir	-11.9682
tier	-11.9682
▁salad	-11.9683
▁vibration	-11.9683
▁NFC	-11.9684
▁Myanmar	-11.9685
▁alpha	-11.9685
▁buffalo	-11.9685
pshire	-11.9687
▁Sacramento	-11.9687
▁desir	-11.9687
con	-11.9688
▁faction	-11.9688
▁Dalmatian	-11.9688
▁Abbott	-11.9689
▁Question	-11.9689
ska	-11.9689
▁scroll	-11.969
▁Monkey	-11.969
▁Protection	-11.9691
▁Yunus	-11.9692
▁Eleanor	-11.9692
▁enforcement	-11.9693
▁AFL	-11.9693
▁displaced	-11.9697
▁Theodor	-11.9697
rill	-11.9698
▁sat	-11.9698
▁soprano	-11.9698
▁facilitate	-11.97
▁Vic	-11.9707
Major	-11.9707
▁chains	-11.9707
Mount	-11.9707
▁identifi	-11.9708
▁reperto	-11.9708
▁Tate	-11.9714
▁decimal	-11.9716
▁tear	-11.9716
▁shortest	-11.9717
▁Duma	-11.9719
▁numbering	-11.9719
▁Eagles	-11.972
▁Lions	-11.9722
▁pathogen	-11.9722
▁fabric	-11.9724
▁Thor	-11.9725
▁slope	-11.9727
Arthur	-11.9729
ila	-11.973
▁Shang	-11.973
▁shin	-11.9733
▁Counte	-11.9735
▁Hubb	-11.9735
▁cur	-11.9736
bird	-11.9739
▁bases	-11.9744
▁cartoons	-11.9745
▁shut	-11.9746
▁Smoke	-11.9748
▁Nico	-11.975
▁Bun	-11.9752
tuna	-11.9752
▁Hamm	-11.9754
sala	-11.9756
▁dropping	-11.9757
rat	-11.9757
▁User	-11.9761
▁realm	-11.9761
▁Luna	-11.9764
nce	-11.9766
▁BR	-11.9767
▁Cam	-11.9769
▁melod	-11.9774
▁Word	-11.9775
wal	-11.9776
▁Fab	-11.9781
▁"2	-11.9786
▁photography	-11.979
▁Reed	-11.979
▁Coloss	-11.9791
▁vol	-11.98
▁propriet	-11.9806
▁tar	-11.9806
children	-11.9811
▁exam	-11.9813
▁Chitral	-11.9814
▁electro	-11.9814
▁Labrador	-11.9815
▁practitioner	-11.9815
▁kitchen	-11.9815
▁sermon	-11.9815
▁interference	-11.9815
▁Protector	-11.9816
Here	-11.9816
▁oath	-11.9816
▁drainage	-11.9816
▁phosphorus	-11.9817
▁XIII	-11.9817
▁foothill	-11.9818
▁malaria	-11.9818
▁pour	-11.9819
can	-11.9819
ons	-11.982
▁Mandaean	-11.982
▁Griffin	-11.982
etto	-11.982
▁generator	-11.9821
▁XV	-11.9821
▁behave	-11.9821
▁valence	-11.9821
▁Calder	-11.9822
▁Soldier	-11.9823
▁matrix	-11.9824
▁Frisian	-11.9824
▁Harper	-11.9825
▁Rouge	-11.9825
▁Komodo	-11.9826
▁MLB	-11.9827
▁Sophie	-11.9828
▁Punch	-11.9829
▁fluoride	-11.9831
▁tables	-11.9833
832	-11.9833
ouse	-11.9834
▁tidal	-11.9834
▁hostage	-11.9834
▁conversation	-11.9835
▁Diamonds	-11.9837
▁View	-11.9837
▁Estonian	-11.9837
▁Alonso	-11.9838
▁Basic	-11.9839
▁Doom	-11.984
▁Ap	-11.9841
José	-11.9842
▁Mathematics	-11.9845
▁compar	-11.9845
▁Garc	-11.9845
hours	-11.9847
▁Fil	-11.9848
▁Scene	-11.9851
▁Newport	-11.9852
▁drought	-11.9856
▁Curie	-11.9861
▁toilet	-11.9861
▁Barrie	-11.9864
▁warrior	-11.9864
▁trainer	-11.9868
▁Bio	-11.987
chewa	-11.9871
▁interchange	-11.9874
▁1.7	-11.9874
igne	-11.988
▁Hade	-11.988
▁Syrian	-11.9881
▁Resident	-11.9885
▁influenc	-11.989
▁Adrian	-11.9891
▁civilizations	-11.9891
rum	-11.9892
istan	-11.9895
50,000	-11.9896
▁microscop	-11.9897
asaki	-11.99
▁Moral	-11.99
▁jewel	-11.9909
val	-11.9909
▁zoolog	-11.9911
▁Career	-11.9916
▁145	-11.9917
▁Mae	-11.9918
▁render	-11.9918
▁duration	-11.992
:00	-11.992
▁mad	-11.9924
▁Proto	-11.9925
▁lense	-11.9926
sworth	-11.9928
endorf	-11.993
BE	-11.9931
▁Gua	-11.9931
▁Sleep	-11.9932
▁enclos	-11.9934
▁rid	-11.9934
▁lawn	-11.9938
▁upgrad	-11.994
▁Hous	-11.9941
▁Siege	-11.9941
▁differentiate	-11.9943
was	-11.9945
▁Threat	-11.9946
▁Eight	-11.9946
▁Recording	-11.9947
▁Ter	-11.9949
▁Fifth	-11.995
▁harsh	-11.995
equilibri	-11.995
▁emblem	-11.995
▁Tudor	-11.995
▁hamlet	-11.995
▁lawsuit	-11.995
▁flexible	-11.995
▁Expedition	-11.9951
▁farthest	-11.9951
▁engagement	-11.9952
▁Transylvania	-11.9952
▁Thief	-11.9952
▁Hunza	-11.9952
▁Choir	-11.9953
▁longitude	-11.9953
▁Hand	-11.9953
▁deaf	-11.9953
▁Shinto	-11.9954
▁helium	-11.9954
▁handball	-11.9954
▁Gazette	-11.9954
▁magma	-11.9955
▁Bayern	-11.9956
▁pollen	-11.9956
1992/	-11.9956
▁RFC	-11.9957
▁IPCC	-11.9957
▁Fife	-11.9957
▁doctorate	-11.9958
▁Churchill	-11.9958
▁Hendrix	-11.9958
▁Register	-11.9958
▁Haydn	-11.9958
▁Taluka	-11.9959
▁diode	-11.9959
▁1793	-11.9961
▁Jonas	-11.9962
▁machinery	-11.9963
78	-11.9966
▁Morse	-11.9966
▁dynamics	-11.9971
▁funk	-11.9972
▁Sophia	-11.9973
▁diving	-11.9976
▁Richardson	-11.9976
ika	-11.9977
Beginning	-11.9977
▁pronoun	-11.9978
Taylor	-11.9979
▁nominal	-11.9981
▁Nights	-11.9981
▁mac	-11.9985
▁deities	-11.9986
▁spike	-11.9987
ife	-11.9987
▁Pizza	-11.9989
var	-11.9992
arts	-11.9995
▁battery	-11.9995
▁chip	-11.9996
ichi	-11.9997
▁Pioneer	-11.9999
▁electrifi	-12.0004
ager	-12.0004
▁161	-12.0006
▁Reference	-12.0008
▁distributions	-12.0008
▁ingredient	-12.0008
▁monk	-12.001
▁Jud	-12.0012
tory	-12.0013
▁microscope	-12.0014
▁sad	-12.0015
Stephen	-12.0015
▁performer	-12.0017
▁kid	-12.0018
▁politically	-12.0019
▁Alt	-12.0019
specified	-12.0023
▁trick	-12.0024
▁Lines	-12.0025
▁Mitch	-12.0026
▁Through	-12.0029
Release	-12.003
▁400,000	-12.0031
Per	-12.0033
▁warriors	-12.0038
▁harder	-12.0039
▁tablet	-12.0041
ookie	-12.0046
▁sees	-12.0046
▁authentic	-12.0047
▁Lyn	-12.0049
▁1802	-12.005
▁frequenc	-12.0052
▁Arn	-12.0057
▁Tar	-12.0058
▁Schuma	-12.006
▁modes	-12.0062
▁loyal	-12.0062
▁Linda	-12.0064
▁Ty	-12.0066
▁linguist	-12.0066
▁sovereignt	-12.007
▁Concord	-12.0073
▁Fields	-12.0075
Part	-12.0079
▁enhance	-12.0081
oux	-12.0081
▁coordinate	-12.0082
▁coconut	-12.0087
▁enterprise	-12.0087
▁Berkshire	-12.0087
▁Harlem	-12.0087
▁anonymous	-12.0087
▁harmonic	-12.0088
▁zoologist	-12.0088
▁Anno	-12.0088
▁Atlétic	-12.0088
▁feminist	-12.0088
▁Toulouse	-12.0088
▁Chopin	-12.0088
▁Trent	-12.0088
ldwin	-12.0088
▁tumor	-12.0088
▁Mormon	-12.0088
▁sponsorship	-12.0089
▁Pietro	-12.0089
▁Bourbon	-12.0089
cover	-12.009
▁Gloucestershire	-12.009
▁Lisbon	-12.009
▁plasma	-12.009
▁Baghda	-12.009
▁idol	-12.009
▁Wheel	-12.0091
▁slot	-12.0092
▁zina	-12.0092
▁1772	-12.0092
▁rk	-12.0093
▁Bayreuth	-12.0094
1986	-12.0094
▁Alberto	-12.0095
Columbia	-12.0095
▁Smoot	-12.0096
▁Tehran	-12.0097
▁Truth	-12.0099
oque	-12.0099
▁Hood	-12.01
▁Gondwana	-12.01
▁tilt	-12.01
▁Donkey	-12.0103
▁Canar	-12.0103
▁Cox	-12.0104
▁closure	-12.0104
▁Ste	-12.0104
▁Species	-12.0107
▁Auschwitz	-12.0108
▁allied	-12.0108
▁Private	-12.0109
▁AM	-12.0111
▁accomplished	-12.0115
▁Lund	-12.0116
▁Lac	-12.0117
fax	-12.0117
▁Novel	-12.0117
Late	-12.0118
▁168	-12.012
▁Alexandre	-12.0126
Ma	-12.0128
wrote	-12.013
▁Sovereign	-12.013
▁Timoth	-12.0131
eira	-12.0131
▁swing	-12.0133
▁steadil	-12.0133
▁Katar	-12.0135
▁Clare	-12.0136
▁increas	-12.0139
▁Tak	-12.014
▁dolphin	-12.0142
▁entitle	-12.0143
▁Willis	-12.0145
▁bromi	-12.0145
▁angel	-12.0146
▁Sil	-12.0147
▁garment	-12.0149
▁Bee	-12.0152
4,000	-12.0154
▁Regent	-12.0157
uilt	-12.0157
▁farms	-12.0159
▁Tehsils	-12.0164
▁Bj	-12.0167
▁Dirt	-12.0168
amino	-12.0169
▁Belle	-12.017
llery	-12.0171
▁Koji	-12.0171
▁rains	-12.0171
▁Allan	-12.0172
▁Wine	-12.0175
Music	-12.0178
▁Penn	-12.0182
▁quot	-12.0185
▁Shop	-12.0185
▁NOT	-12.0189
▁smart	-12.0191
▁illustrate	-12.0191
ero	-12.0192
▁anger	-12.0193
luegrass	-12.0193
ythological	-12.0194
▁Corp	-12.0195
▁soy	-12.0202
▁Kh	-12.0205
Bias	-12.0206
▁Dodge	-12.0215
Book	-12.0218
ked	-12.0219
inus	-12.022
▁halt	-12.0221
kawa	-12.0223
▁della	-12.0223
▁pseudonym	-12.0224
▁Justin	-12.0225
▁Sofi	-12.0225
▁syrup	-12.0226
▁hydrocarbon	-12.0226
▁suffix	-12.0226
▁dramatist	-12.0226
▁Crete	-12.0226
▁uncommon	-12.0226
▁resurrection	-12.0226
▁disagreement	-12.0226
▁dairy	-12.0227
▁barrel	-12.0227
▁sp	-12.0228
▁reception	-12.0229
▁Edwin	-12.023
▁Isabel	-12.023
▁lymphocyte	-12.023
04	-12.0231
▁Cecil	-12.0233
▁Shield	-12.0233
▁slice	-12.0233
▁Hartford	-12.0234
▁ATP	-12.0234
▁Zanzibar	-12.0236
Black	-12.0236
▁botanical	-12.0237
▁Arc	-12.0238
▁Paterson	-12.0239
▁rape	-12.024
▁Rag	-12.024
▁Curitiba	-12.0242
▁106	-12.0242
▁Wimb	-12.0243
▁Mandel	-12.0244
▁Wilt	-12.0245
ucci	-12.0246
▁Introduction	-12.0248
▁Bohemian	-12.0249
▁Wario	-12.025
▁permit	-12.025
▁duct	-12.025
▁freed	-12.0252
pent	-12.0254
▁threads	-12.0256
68	-12.0257
▁Copper	-12.0257
Tropical	-12.0259
Frederick	-12.0259
▁proportion	-12.0262
ven	-12.0265
ée	-12.0266
▁Rafael	-12.0267
80,000	-12.0271
▁ki	-12.0273
▁homeland	-12.0274
▁Vil	-12.0278
Barber	-12.0278
▁Ob	-12.0279
▁asylum	-12.028
▁meta	-12.028
▁craft	-12.0284
▁Warrior	-12.0284
▁Maroon	-12.0286
▁Window	-12.0289
▁Eurasia	-12.029
▁Ny	-12.0292
▁Hang	-12.0293
▁persuade	-12.0295
▁Verdi	-12.0296
▁Mina	-12.0298
▁1700	-12.0298
▁Made	-12.03
▁feather	-12.0301
host	-12.0301
▁Sci	-12.0302
▁ghost	-12.0302
▁priests	-12.0309
▁Dana	-12.031
▁Monarch	-12.0311
▁travell	-12.0317
▁000	-12.0319
guez	-12.0319
▁Emmanuel	-12.032
2006	-12.0321
▁persist	-12.0325
▁grams	-12.033
▁herbs	-12.033
▁towers	-12.033
▁135	-12.0331
▁SP	-12.0333
month	-12.0334
▁pouch	-12.0336
▁voluntar	-12.0338
▁Mori	-12.0339
▁brack	-12.034
ram	-12.0344
▁assembl	-12.0349
▁09	-12.0349
▁1.3	-12.0349
▁pant	-12.0352
▁Kath	-12.0353
62	-12.0355
▁resistan	-12.0358
eum	-12.0361
otti	-12.0361
▁Bamberg	-12.0363
▁Finals	-12.0364
ulmonary	-12.0364
▁ideolog	-12.0365
▁ink	-12.0366
▁symbolize	-12.0366
▁prefix	-12.0366
▁attorney	-12.0367
▁lesbian	-12.0367
▁microprocessor	-12.0367
▁lithium	-12.0367
▁treason	-12.0367
▁tentacle	-12.0367
▁Byrne	-12.0367
▁spectacular	-12.0367
▁commitment	-12.0367
▁Clown	-12.0367
▁Beta	-12.0368
▁Mardan	-12.0368
▁sapien	-12.0368
saw	-12.0368
▁Herald	-12.0369
▁Marcel	-12.0369
▁BAFTA	-12.0369
▁encode	-12.0369
▁Palestinian	-12.037
▁Capcom	-12.037
▁filmmaker	-12.0371
▁fermentation	-12.0372
▁Roth	-12.0372
▁Erik	-12.0372
otto	-12.0372
▁iodide	-12.0373
▁Marath	-12.0374
▁Murphy	-12.0375
fected	-12.0376
▁Put	-12.0378
▁Sinclair	-12.038
▁Cohen	-12.038
▁Lonely	-12.0381
▁Olympian	-12.0383
▁Bow	-12.0384
▁rounded	-12.0384
▁Beast	-12.0386
▁Angels	-12.0386
▁equipp	-12.0386
▁Dumb	-12.0387
▁Ayr	-12.039
▁logarithmic	-12.0391
▁Slovenian	-12.0392
▁Yoko	-12.0393
▁citing	-12.0393
▁Change	-12.0394
▁ignor	-12.0395
▁submitt	-12.0396
▁Dhak	-12.0397
▁starch	-12.0397
▁Mason	-12.0398
▁Miles	-12.04
ortex	-12.0401
▁Def	-12.0401
Recent	-12.0401
▁240	-12.0401
▁acceleration	-12.0401
Canadian	-12.0402
▁Salis	-12.0405
▁Sadda	-12.0405
▁Monument	-12.0407
▁Dorothy	-12.0407
member	-12.0408
▁amend	-12.0409
Every	-12.041
shell	-12.0413
▁swim	-12.0422
▁Dry	-12.0424
▁bold	-12.0425
▁Plaut	-12.0426
▁nerve	-12.0429
▁densely	-12.0432
▁isotope	-12.0432
▁Spurgeon	-12.0433
▁Bari	-12.0434
▁Clan	-12.0437
▁Start	-12.0438
hop	-12.0438
Alfred	-12.0439
▁Oceania	-12.0439
▁ballad	-12.0439
▁Valle	-12.044
▁Pet	-12.0442
▁Caf	-12.0442
▁Folk	-12.0444
sea	-12.0445
etary	-12.0448
nchez	-12.0457
▁poles	-12.0458
60	-12.0459
Lake	-12.046
mund	-12.0461
▁Event	-12.0464
▁Constan	-12.0465
▁serf	-12.0468
▁hunter	-12.0469
▁Lesl	-12.0471
▁Maha	-12.0472
▁pest	-12.0473
▁Rosso	-12.0473
▁exclude	-12.0475
▁Cry	-12.0475
▁Dor	-12.0479
▁Trib	-12.0487
▁solv	-12.049
▁challeng	-12.0493
▁ck	-12.0494
LP	-12.0497
▁curv	-12.0502
▁Sprint	-12.0503
▁Juno	-12.0503
▁pedestrian	-12.0507
sous	-12.0508
elinda	-12.0509
▁shrimp	-12.0509
▁captivity	-12.0509
▁antiquit	-12.0509
▁Feistel	-12.0509
▁Wessex	-12.0509
▁strait	-12.051
▁Santander	-12.051
▁perpendicular	-12.051
▁conspirac	-12.051
▁SEAT	-12.0511
▁shelf	-12.0512
▁subset	-12.0512
▁encoding	-12.0512
▁Prayer	-12.0512
▁Venetian	-12.0513
▁grassland	-12.0514
▁Fergus	-12.0514
▁1764	-12.0514
▁Hindi	-12.0515
▁Hamlet	-12.0516
▁Resolution	-12.0517
▁translator	-12.0517
▁nickel	-12.0519
▁Biology	-12.0519
▁Ahmed	-12.0519
▁Tahiti	-12.052
▁1.1	-12.052
▁Diet	-12.052
▁nster	-12.052
▁Hannah	-12.0523
▁Edo	-12.0524
▁defect	-12.0525
▁Eu	-12.0525
▁Breton	-12.0528
▁Boulogne	-12.0529
▁Campo	-12.0532
▁Southwest	-12.0534
▁Amber	-12.0535
xes	-12.0536
▁Auburn	-12.0536
▁Catholicism	-12.0537
▁Soon	-12.0537
▁Mini	-12.0538
▁arsenic	-12.0542
▁André	-12.0543
Marne	-12.0543
▁Axis	-12.0543
▁Campus	-12.0544
sey	-12.0545
Powell	-12.0547
utherford	-12.0549
president	-12.055
ovell	-12.055
Fi	-12.0551
▁Saman	-12.0552
ardi	-12.0554
Hill	-12.0558
cycling	-12.056
▁floating	-12.0568
▁Qin	-12.0568
▁Mariner	-12.057
▁Dust	-12.0572
▁impos	-12.0573
▁chlorin	-12.0574
▁thermodynamic	-12.0577
▁flute	-12.0578
▁Heinz	-12.0578
▁109	-12.0578
▁syndicat	-12.058
▁Tro	-12.0585
▁aesthetic	-12.0588
▁Senators	-12.059
▁Myers	-12.0592
ges	-12.06
▁periodical	-12.0602
▁Eurasian	-12.0605
▁177	-12.0608
▁dances	-12.0609
▁Lind	-12.0609
▁pearl	-12.0614
▁AG	-12.0617
EAD	-12.0617
▁kit	-12.0617
ller	-12.0618
▁prepar	-12.0618
▁Ply	-12.062
sharp	-12.062
▁luck	-12.0621
▁upward	-12.0623
iers	-12.0623
▁Animat	-12.0624
▁updat	-12.0625
▁cylinder	-12.0625
▁103	-12.0625
▁crosse	-12.063
▁Peu	-12.0632
▁Production	-12.0635
▁3166-	-12.0638
84	-12.0639
defin	-12.0641
▁Qui	-12.0643
▁Lock	-12.0643
▁nen	-12.0644
▁basil	-12.0649
▁Comic	-12.065
▁Where	-12.0652
▁Zimbabwe	-12.0652
▁celebrities	-12.0654
▁kimono	-12.0654
▁Voivodeship	-12.0654
▁monsoon	-12.0654
▁pigeon	-12.0655
▁Candi	-12.0655
▁revenge	-12.0655
Important	-12.0656
▁eternal	-12.0656
▁Peloponnes	-12.0656
▁Steelers	-12.0656
▁terrain	-12.0656
▁Hedgehog	-12.0657
▁Brahms	-12.0657
▁Architecture	-12.0657
▁occurrence	-12.0657
▁Python	-12.0658
▁nasal	-12.0659
▁Policy	-12.0659
▁commerc	-12.0659
▁93	-12.0659
▁15,000	-12.066
▁Hastings	-12.066
▁Stefan	-12.066
▁Faithful	-12.0661
▁Provision	-12.0661
▁Zambia	-12.0661
▁1536	-12.0662
▁Fletch	-12.0663
▁Igor	-12.0663
▁1775	-12.0663
▁HTML	-12.0663
▁Happy	-12.0664
▁Toscanini	-12.0665
▁Box	-12.0665
▁Livorn	-12.0665
▁nail	-12.0665
▁noise	-12.0666
▁dependenc	-12.0668
▁Sp	-12.0669
▁mistaken	-12.0669
▁Brig	-12.0671
▁Again	-12.0673
Albert	-12.0675
▁glacial	-12.0676
▁Ruhr	-12.0677
brand	-12.0677
Brien	-12.0677
▁Disneyland	-12.0678
▁1794	-12.0679
▁Falling	-12.0679
▁Polk	-12.068
cha	-12.0681
▁monarchs	-12.0681
▁immunit	-12.0683
▁Fork	-12.0683
▁plantation	-12.0683
▁Letters	-12.0685
mus	-12.0686
▁1730	-12.0689
▁Pine	-12.0689
▁aluminium	-12.0691
▁attractive	-12.0693
▁stall	-12.0694
chief	-12.0697
El	-12.0698
Notable	-12.0701
▁dock	-12.0701
London	-12.0701
Alan	-12.0701
▁traveller	-12.0708
▁Thay	-12.071
▁owns	-12.071
Derek	-12.0715
▁Pretori	-12.0716
▁assets	-12.0721
▁Kangaroo	-12.0724
.5	-12.0725
▁beg	-12.0728
23	-12.0729
▁pirate	-12.0732
▁geographically	-12.0733
▁interchangeabl	-12.0738
▁Keen	-12.0738
▁goat	-12.074
▁Single	-12.074
▁Lamb	-12.0742
▁Hahn	-12.0743
▁Ti	-12.0745
▁Fal	-12.0748
▁lamp	-12.075
SS	-12.0752
▁poly	-12.0753
uku	-12.0753
inae	-12.0758
Land	-12.0758
▁Jude	-12.076
Islam	-12.076
▁Cobb	-12.0761
▁reviv	-12.0763
ating	-12.0764
ole	-12.0767
agne	-12.0767
▁1823	-12.0768
▁propagand	-12.0772
▁Eros	-12.0773
▁notion	-12.0776
▁bred	-12.0779
▁chin	-12.078
quez	-12.0781
▁hang	-12.0781
▁pyramid	-12.0781
▁1796	-12.0782
▁siblings	-12.0783
▁Carr	-12.0787
▁domesticat	-12.0788
▁welcome	-12.0794
uit	-12.0794
▁rib	-12.0796
media	-12.0796
▁Fear	-12.0797
▁Conn	-12.0798
▁flu	-12.08
▁Eisenhower	-12.0801
▁judgment	-12.0801
▁Assistant	-12.0801
▁accent	-12.0802
▁silent	-12.0802
▁Mozambi	-12.0802
kovic	-12.0802
▁resemblance	-12.0802
▁punctuation	-12.0802
▁militant	-12.0802
▁Bernstein	-12.0802
▁DVDs	-12.0802
▁reproductive	-12.0802
▁Villeneuve	-12.0802
▁Macbeth	-12.0802
▁McCarthy	-12.0802
box	-12.0803
▁orientation	-12.0803
▁aftermath	-12.0803
▁Ghana	-12.0803
▁evacuation	-12.0804
▁preservation	-12.0804
▁gradient	-12.0804
▁Micronesia	-12.0804
▁Spielberg	-12.0804
▁Sabre	-12.0804
▁Macintosh	-12.0804
▁Sgt	-12.0804
▁humid	-12.0805
▁Maira	-12.0805
▁inflammation	-12.0806
▁criteria	-12.0807
▁Plaza	-12.0807
▁spite	-12.0808
▁intact	-12.0808
▁pools	-12.0808
▁swan	-12.0808
date	-12.0809
▁entertainer	-12.0809
▁PBS	-12.0809
▁Mirama	-12.0811
▁Earthquake	-12.0811
▁Carnival	-12.0812
▁Jhelum	-12.0812
▁Oman	-12.0812
▁Quarter	-12.0813
▁Spot	-12.0815
▁Mack	-12.0816
schenbach	-12.0816
▁rul	-12.0816
▁Vengeance	-12.0817
▁spheric	-12.0818
▁Cyr	-12.0819
▁Barber	-12.0822
VHS	-12.0823
▁Ulster	-12.0823
▁Touch	-12.0827
▁Horst	-12.083
only	-12.0833
▁Balkan	-12.0833
mes	-12.0834
▁gale	-12.0842
Weimar	-12.0843
elle	-12.0844
▁Method	-12.0844
▁Whale	-12.0847
▁treasure	-12.0849
▁colonist	-12.085
University	-12.0851
▁Wiener	-12.0852
▁depart	-12.0853
▁denomination	-12.0854
xeter	-12.0856
▁pile	-12.0856
▁Teatr	-12.0857
▁Carme	-12.0857
▁Krak	-12.0863
▁SDS	-12.0867
▁Sylvi	-12.0871
▁therapy	-12.0871
▁wash	-12.0872
▁Zi	-12.0872
▁wrapp	-12.0874
▁Poe	-12.0876
▁Direct	-12.0876
tu	-12.0876
▁lb	-12.0877
median	-12.0881
▁Rhein	-12.0884
▁Lenz	-12.0885
▁duch	-12.0887
yar	-12.0887
▁Manu	-12.0888
▁Plato	-12.089
▁Ville	-12.0892
▁tires	-12.0894
ig	-12.0895
▁Ducks	-12.0895
▁infant	-12.0896
▁Ranger	-12.0897
▁crop	-12.0897
Northamptonshire	-12.0898
▁Names	-12.0901
▁Dow	-12.0901
stow	-12.0902
▁stuff	-12.0903
nard	-12.0909
▁Constantin	-12.0913
▁Vlad	-12.0913
77	-12.0914
Car	-12.0917
pm	-12.0917
▁Astro	-12.0923
plan	-12.0927
2,000	-12.0927
▁brew	-12.0931
▁Wig	-12.0932
▁Appli	-12.0933
DS	-12.0934
▁ta	-12.0936
▁Bone	-12.0938
min	-12.0939
▁quarters	-12.094
hair	-12.0941
▁Said	-12.0944
▁FM	-12.0944
▁outlet	-12.0944
▁shuttle	-12.0951
ORGANIZATION	-12.0951
▁scandal	-12.0951
▁joystick	-12.0951
▁Murree	-12.0951
▁triangular	-12.0951
▁cucumber	-12.0951
▁meiosis	-12.0951
▁Joel	-12.0951
▁technological	-12.0951
▁communion	-12.0951
▁mutant	-12.0951
▁Poseidon	-12.0952
▁diocese	-12.0952
▁watershed	-12.0952
▁Oilers	-12.0952
▁speculation	-12.0952
▁Elgar	-12.0952
▁citizenship	-12.0952
▁synonymous	-12.0952
▁Ajax	-12.0952
▁Worcestershire	-12.0953
▁exploration	-12.0953
▁Ayer	-12.0953
▁psychiatrist	-12.0954
▁suborder	-12.0954
▁email	-12.0955
▁Hector	-12.0956
▁Gottfri	-12.0956
ukem	-12.0956
▁Bailey	-12.0956
▁Kreuz	-12.0956
▁Peruvian	-12.0956
ondo	-12.0957
▁typhoon	-12.0957
▁Dreams	-12.0958
ques	-12.0959
▁Forever	-12.0959
▁Groen	-12.096
▁steppe	-12.096
▁Pandor	-12.096
▁continuation	-12.0961
▁Wanderer	-12.0961
▁1400	-12.0963
▁ZX	-12.0963
▁Virtual	-12.0964
▁Oil	-12.0964
▁granit	-12.0964
▁selective	-12.0965
▁sentences	-12.0966
▁Brock	-12.0967
▁Hershey	-12.0968
▁Palau	-12.0968
▁perceive	-12.0968
▁sixteenth	-12.097
ins	-12.0972
▁Wire	-12.0976
▁feudal	-12.098
▁Danielle	-12.0981
▁Chester	-12.0982
nan	-12.0982
▁stor	-12.0984
▁Gy	-12.0985
▁integr	-12.0986
▁Charleston	-12.0987
▁Bonapart	-12.0987
▁Fielding	-12.0988
▁pad	-12.0993
▁Kant	-12.0993
▁theological	-12.0993
▁Franconia	-12.0994
Linux	-12.0994
▁Nichols	-12.0994
Matthew	-12.0994
▁signatures	-12.0995
Wikipedia	-12.0995
▁flavors	-12.0995
▁cart	-12.0996
▁irrigati	-12.0997
▁ho	-12.0997
▁RAM	-12.1002
▁Ir	-12.1005
▁Brooks	-12.1006
put	-12.101
▁soloist	-12.101
mile	-12.1011
▁trader	-12.1013
▁Sandra	-12.1016
▁Store	-12.1018
▁Dom	-12.1019
▁Jule	-12.1019
▁compil	-12.102
▁preceded	-12.1023
▁Even	-12.1026
▁1660	-12.1026
▁undertaken	-12.1028
▁Kan	-12.1029
▁450	-12.103
▁Visual	-12.1033
ex	-12.1034
▁Ellen	-12.1035
▁wi	-12.1037
▁cent	-12.1039
▁conventions	-12.1039
1991/	-12.1041
gne	-12.1041
▁refugees	-12.1044
▁Characters	-12.1047
att	-12.1048
▁Fool	-12.1049
▁pigs	-12.105
▁Ou	-12.105
▁Recordings	-12.1062
▁surrendered	-12.1063
▁goats	-12.1081
op	-12.1084
▁worse	-12.1086
▁Ladakh	-12.1091
▁146	-12.1094
▁Avon	-12.1099
▁excess	-12.1099
▁geologic	-12.11
1988/	-12.11
▁Boleyn	-12.1102
▁staple	-12.1102
▁Gloucester	-12.1102
46	-12.1102
▁casualties	-12.1102
▁Buckinghamshire	-12.1103
▁multiplayer	-12.1103
▁Nicaea	-12.1103
▁Belize	-12.1103
▁Coptic	-12.1104
handling	-12.1105
▁lecturer	-12.1106
▁viral	-12.1106
▁Cardiff	-12.1106
▁Kaiser	-12.1106
▁Ligue	-12.1107
▁Taiwanese	-12.1107
▁Instrument	-12.1108
▁Skipper	-12.1108
▁gamma	-12.1108
▁exert	-12.1109
▁Diemen	-12.111
▁Iberian	-12.111
▁Sioux	-12.111
▁Uruguayan	-12.111
▁froze	-12.1111
▁Sel	-12.1113
▁Hassan	-12.1113
▁Eleven	-12.1115
▁Linkin	-12.1116
▁Amrit	-12.1116
▁evi	-12.1116
▁Huxley	-12.1116
▁158	-12.1116
▁Price	-12.1117
▁outlaw	-12.1118
▁realistic	-12.1121
▁Hesiod	-12.1122
▁lieutenant	-12.1123
▁wholly	-12.1125
▁wolf	-12.1125
▁0.2	-12.1128
▁eighteenth	-12.1128
▁Logan	-12.1129
▁Ariel	-12.113
▁backup	-12.1131
▁Karen	-12.1132
▁spirits	-12.1133
▁Gore	-12.1133
▁Deer	-12.1133
▁1786	-12.1134
▁phrases	-12.1134
▁batt	-12.1134
▁static	-12.1135
▁wax	-12.1138
num	-12.1139
▁Economy	-12.114
▁publishers	-12.1142
ids	-12.1144
▁Tell	-12.1147
Francisco	-12.1148
Irish	-12.1149
ative	-12.115
▁beds	-12.1153
urance	-12.1155
lès	-12.1156
▁Spy	-12.1157
ezzo	-12.1159
▁confiden	-12.116
▁HBO	-12.1161
ise	-12.1162
▁Fre	-12.1162
▁polo	-12.1163
▁yard	-12.1166
▁Talent	-12.1168
▁lamps	-12.1168
▁Websites	-12.1169
▁Vega	-12.1172
▁odor	-12.1173
▁Nagar	-12.1178
owitz	-12.1182
▁exiled	-12.1184
Bad	-12.1187
Jacques	-12.1189
▁tr	-12.1189
▁resolve	-12.1194
Large	-12.1197
▁Student	-12.1197
ground	-12.1197
▁Ender	-12.1198
▁Too	-12.1198
▁Laos	-12.1198
▁0.5	-12.12
▁boom	-12.12
▁colorful	-12.1203
▁Basel	-12.1206
▁Chic	-12.121
▁shire	-12.1212
Or	-12.1213
oma	-12.1216
▁Terror	-12.1217
▁finishes	-12.1219
Fall	-12.1224
▁SC	-12.1224
▁norm	-12.1225
▁167	-12.1226
▁cancell	-12.1227
▁puts	-12.1228
56	-12.1233
▁prevalen	-12.1238
▁Rodr	-12.1239
▁JB	-12.1241
▁complain	-12.1243
oh	-12.1245
starr	-12.1247
▁Remix	-12.1248
▁surge	-12.125
▁Hip	-12.125
▁hierarch	-12.1251
▁MTR	-12.1252
▁Estates	-12.1254
▁Places	-12.1254
▁Perfect	-12.1255
khov	-12.1255
▁Custom	-12.1256
yx	-12.1256
▁astronaut	-12.1256
▁mal	-12.1256
▁feminin	-12.1256
▁breakfast	-12.1256
▁Asturia	-12.1256
▁deletion	-12.1256
▁Spectrum	-12.1256
▁schism	-12.1256
▁Bronx	-12.1256
▁entries	-12.1257
▁pluck	-12.1257
▁Latter	-12.1257
▁Cavalier	-12.1257
▁abdomen	-12.1257
▁Wisdom	-12.1258
heart	-12.1259
▁wizard	-12.1259
schaft	-12.1259
▁restoration	-12.1259
▁Clyde	-12.1259
▁keyboardist	-12.126
▁alert	-12.1261
▁cadmium	-12.1261
▁jurist	-12.1262
▁stake	-12.1262
▁nobleman	-12.1262
▁Reichs	-12.1263
Pius	-12.1263
▁Rainbow	-12.1264
▁RIAA	-12.1266
▁alcoholic	-12.1266
▁149	-12.1267
▁1808	-12.1269
▁1807	-12.1269
▁Haitian	-12.127
▁acceptance	-12.127
▁molar	-12.1271
▁Xavier	-12.1272
▁Jinnah	-12.1272
▁eccentric	-12.1272
▁spray	-12.1273
▁sociology	-12.1273
▁Bradford	-12.1274
▁Nikolai	-12.1275
lang	-12.1275
▁Dae	-12.1276
▁Jena	-12.1277
▁ois	-12.1278
▁belly	-12.1279
▁Syr	-12.128
▁Lin	-12.128
hof	-12.1283
▁Titans	-12.1284
▁Tac	-12.1286
▁Canon	-12.1287
▁Sat	-12.1289
▁Gallag	-12.1289
▁badge	-12.129
▁Cantor	-12.1291
▁con	-12.1292
▁ethanol	-12.1295
▁Cody	-12.1296
▁Meta	-12.1296
▁faithful	-12.1297
▁inform	-12.13
▁Graz	-12.13
Personal	-12.1301
▁Anjou	-12.1301
Career	-12.1304
Antoine	-12.1304
ee	-12.1304
Walter	-12.1307
Kelly	-12.1308
▁Horde	-12.1309
Official	-12.131
▁Clarence	-12.1311
▁modell	-12.1312
▁emitt	-12.1313
▁banner	-12.1314
employment	-12.1317
▁Agne	-12.1319
ending	-12.1321
▁reopen	-12.1322
▁114	-12.1323
▁Wick	-12.1323
▁Locus	-12.1326
▁var	-12.1328
▁Solo	-12.1328
▁Mach	-12.1332
▁anticipat	-12.1337
▁keeps	-12.1337
▁execut	-12.1341
▁supposedly	-12.1342
▁Bambi	-12.1342
genta	-12.1343
eiro	-12.1343
zach	-12.1346
nic	-12.135
▁8,000	-12.135
▁Warwick	-12.1353
SU	-12.1354
▁Website	-12.1356
founded	-12.1358
Blood	-12.1358
▁Ride	-12.1359
Ivo	-12.1359
gin	-12.1362
▁Glor	-12.1363
visible	-12.1363
▁rectang	-12.1366
▁Nordic	-12.1367
losses	-12.1369
▁Hon	-12.137
▁Sid	-12.1372
Rock	-12.1374
▁governmental	-12.1375
enza	-12.1375
▁Source	-12.1375
▁deeply	-12.1376
▁float	-12.1377
▁Angus	-12.138
85	-12.1383
▁Fact	-12.139
▁loans	-12.1391
▁cure	-12.1392
2007	-12.1392
Jo	-12.1392
▁Large	-12.1396
lar	-12.1397
▁cyan	-12.1399
▁Silesia	-12.1401
▁Hank	-12.1405
nstop	-12.1406
aliphate	-12.141
▁clergy	-12.141
▁Socrat	-12.1412
▁taxonomy	-12.1412
▁Urawa	-12.1412
▁epoch	-12.1412
▁signify	-12.1412
▁cigarette	-12.1412
▁seismic	-12.1412
▁Horror	-12.1413
▁landslide	-12.1413
▁Camden	-12.1413
▁Falkland	-12.1413
▁Terminal	-12.1413
▁Tonight	-12.1414
▁yeast	-12.1414
▁recital	-12.1414
▁blindness	-12.1415
▁Pauline	-12.1415
▁pollution	-12.1415
▁Safety	-12.1415
▁patriot	-12.1415
▁fin	-12.1416
▁Zheng	-12.1417
▁Xi	-12.1417
▁Terrier	-12.1417
▁Boer	-12.1418
▁medalist	-12.1418
▁analogous	-12.142
▁romance	-12.142
▁1200	-12.1421
▁humidity	-12.1421
▁Lazio	-12.1421
▁Herschel	-12.1423
▁Quaker	-12.1423
▁electrode	-12.1423
▁transparent	-12.1423
Eisenach	-12.1424
▁Marx	-12.1424
▁scar	-12.1425
▁Rhineland	-12.1426
▁mythical	-12.1427
▁surgeon	-12.1427
▁Marshal	-12.1428
ova	-12.1429
witz	-12.143
▁EA	-12.143
▁Mis	-12.1431
▁Opel	-12.1432
▁lichen	-12.1433
▁Kornberg	-12.1434
▁enforce	-12.1435
▁Fontaine	-12.1435
▁pap	-12.1435
▁1066	-12.1436
▁Creation	-12.144
80	-12.144
▁Toy	-12.1441
▁Diana	-12.1442
▁Beyonc	-12.1443
▁Regis	-12.1443
▁superfamil	-12.1443
Go	-12.1443
▁Levant	-12.1445
▁parade	-12.1446
ntil	-12.1447
▁finals	-12.1449
Much	-12.145
▁loyalt	-12.145
▁60,000	-12.1451
▁accommodate	-12.1451
▁mont	-12.1452
▁Dickins	-12.1456
▁shower	-12.1456
▁Normal	-12.1457
1993/	-12.146
▁disputes	-12.146
▁nude	-12.1461
▁Perform	-12.1462
▁Thus	-12.1463
Samuel	-12.1463
Earth	-12.1464
▁Sergi	-12.1464
Russian	-12.1466
▁graves	-12.1468
▁passion	-12.1468
Brown	-12.147
▁Islanders	-12.1477
peake	-12.1479
▁Row	-12.148
▁Progress	-12.1481
▁Hara	-12.1484
atus	-12.1484
Don	-12.1492
▁Tur	-12.1493
▁Serb	-12.1495
▁antigen	-12.1496
Time	-12.1496
▁advent	-12.1498
elles	-12.1499
▁axiom	-12.15
▁escap	-12.15
▁ès	-12.1502
▁stripe	-12.1503
▁Shin	-12.1506
▁Holiday	-12.1506
▁arrows	-12.1508
aternal	-12.1509
▁emerg	-12.151
▁imagin	-12.1511
▁Colon	-12.1515
▁retriev	-12.1518
Form	-12.152
▁incomplete	-12.1525
▁intervals	-12.1529
litz	-12.1529
Pope	-12.1529
▁Shade	-12.153
97	-12.1537
▁demolish	-12.1537
▁fuels	-12.1538
Link	-12.1539
pe	-12.1542
▁closes	-12.1545
ikk	-12.1545
▁Kamp	-12.1547
▁HD	-12.1547
▁Elbe	-12.1548
Depend	-12.155
▁Mans	-12.1551
each	-12.1552
▁evacuat	-12.1552
▁tre	-12.1556
▁ba	-12.1558
▁marsh	-12.1558
▁Philipp	-12.1559
▁Falcons	-12.1566
▁EPs	-12.1566
▁Madam	-12.1567
tructural	-12.1569
▁font	-12.157
▁evangelical	-12.1571
▁Zeppelin	-12.1571
▁battalion	-12.1571
▁Afrikaans	-12.1571
▁expense	-12.1571
▁horizon	-12.1571
▁semiconductor	-12.1571
▁oratorio	-12.1571
▁cartridge	-12.1571
▁foster	-12.1571
sex	-12.1571
▁modify	-12.1572
▁solstice	-12.1572
▁Lucerne	-12.1572
▁Vezina	-12.1572
▁Brigade	-12.1572
▁digging	-12.1572
iyya	-12.1572
▁convent	-12.1572
▁Yamato	-12.1572
▁scout	-12.1573
viation	-12.1573
▁elevator	-12.1573
▁Legion	-12.1573
▁Osbourne	-12.1574
▁fulfill	-12.1574
▁spouse	-12.1574
▁PhD	-12.1575
▁Dauphin	-12.1575
▁summon	-12.1575
▁detective	-12.1575
iterary	-12.1576
sehra	-12.1577
▁Ananke	-12.1577
▁rigid	-12.1577
▁Chesa	-12.1578
ver	-12.1578
▁observator	-12.1579
▁wishe	-12.1581
▁Bison	-12.1581
▁gorge	-12.1582
▁Stephan	-12.1582
▁Pact	-12.1584
▁Wilbur	-12.1586
▁Self	-12.1586
▁Bowser	-12.1586
▁Everything	-12.1587
▁Comet	-12.1588
▁Saga	-12.159
▁symbolic	-12.159
▁Reichsta	-12.1593
▁HMS	-12.1594
▁Jung	-12.1597
è	-12.1601
▁Kuma	-12.1602
douard	-12.1602
coding	-12.1603
▁imagina	-12.1603
▁Essen	-12.1604
▁Ox	-12.1604
▁cage	-12.1604
▁Buck	-12.1605
▁Vaud	-12.1605
66	-12.1605
▁NES	-12.1606
▁Sen	-12.1607
▁practic	-12.161
▁Cary	-12.1612
▁mating	-12.1613
▁realiz	-12.1616
▁insist	-12.1616
▁Joy	-12.1617
▁Sims	-12.1617
▁104	-12.1618
▁Genoa	-12.1621
03	-12.1621
skirt	-12.1624
heavy	-12.1625
vi	-12.1625
rlitz	-12.1625
cus	-12.1626
lan	-12.1627
shirt	-12.1627
▁Cash	-12.1628
letter	-12.1629
▁Weir	-12.1629
▁Marquess	-12.1631
▁Loud	-12.1631
▁donat	-12.1632
▁pear	-12.1633
▁phonetic	-12.1633
ines	-12.1634
Anna	-12.1636
anus	-12.1642
▁Alexi	-12.1643
▁ratifie	-12.1647
▁Rider	-12.1649
▁Hale	-12.1652
summer	-12.1654
▁miner	-12.1656
▁Naka	-12.1658
▁glor	-12.1658
▁07	-12.166
win	-12.1661
▁Tek	-12.1662
▁Shepherd	-12.1663
az	-12.1664
Adams	-12.1665
▁spark	-12.1667
▁WT	-12.1669
Ver	-12.1669
▁Az	-12.167
▁gill	-12.167
▁Jovi	-12.167
▁mortal	-12.1672
lson	-12.1673
▁Honour	-12.1675
▁compare	-12.1678
▁discharge	-12.1681
▁Diva	-12.1681
ain	-12.1683
umbledo	-12.1684
▁imag	-12.1686
▁circulat	-12.1688
▁rag	-12.1689
▁Organis	-12.1693
▁Recent	-12.1695
▁drill	-12.1699
▁Reason	-12.1699
▁Es	-12.17
▁panda	-12.1705
▁seals	-12.1707
▁su	-12.1709
▁Tasman	-12.1709
▁mimic	-12.171
▁Geographic	-12.1711
44	-12.1711
▁deni	-12.1712
▁Aegea	-12.1713
▁perceiv	-12.1713
▁Yes	-12.1716
▁Coco	-12.172
▁specialis	-12.1723
▁Georges	-12.1723
▁poisoning	-12.1727
oon	-12.173
émon	-12.173
▁CPUs	-12.1731
lizzard	-12.1731
▁Gm	-12.1732
▁musket	-12.1732
▁shepherd	-12.1732
▁Botswana	-12.1732
▁discrete	-12.1732
▁Paralympic	-12.1732
▁banjo	-12.1732
Tokugawa	-12.1733
rate	-12.1733
▁absinthe	-12.1734
▁amphibian	-12.1734
▁Milto	-12.1734
▁superstar	-12.1735
▁ginger	-12.1735
▁Medina	-12.1735
▁virgin	-12.1735
US	-12.1735
▁footage	-12.1736
▁roast	-12.1737
▁Oracle	-12.1737
▁Exhibition	-12.1737
▁Reconstruction	-12.1737
▁HIV	-12.1738
▁Byrd	-12.1739
▁Lynch	-12.1739
▁Gogh	-12.1739
▁Motion	-12.1739
▁Filipino	-12.174
▁Aslan	-12.1741
▁depot	-12.1741
▁Cadet	-12.1741
▁vault	-12.1742
▁Speaker	-12.1742
▁Barbirolli	-12.1744
▁Osnabr	-12.1744
mm	-12.1744
▁brush	-12.1744
▁Moody	-12.1745
▁1777	-12.1746
▁Rus	-12.1747
▁tho	-12.1749
ista	-12.1749
▁Sergei	-12.175
▁arteri	-12.175
▁donate	-12.175
▁republican	-12.175
▁183	-12.1751
iden	-12.1751
▁Punt	-12.1755
together	-12.1757
▁5.5	-12.1757
llman	-12.1759
▁Macedonian	-12.176
▁convey	-12.1764
▁Nickel	-12.1764
urine	-12.1765
▁Johan	-12.1765
▁Linspire	-12.1765
▁mangan	-12.1769
▁Grow	-12.1771
▁sketch	-12.1771
hin	-12.1773
▁Samu	-12.1774
▁Erin	-12.1775
▁Iraqi	-12.1775
▁muc	-12.1776
▁Cost	-12.1776
▁sometime	-12.1777
▁forum	-12.1777
▁Azo	-12.1779
▁Maker	-12.1779
▁cf	-12.178
spinal	-12.1782
▁rod	-12.1784
▁Hanse	-12.1785
leigh	-12.1786
▁scratch	-12.1786
govern	-12.1786
Palatin	-12.1787
▁Kui	-12.179
50	-12.1791
bow	-12.1792
National	-12.1792
White	-12.1798
ged	-12.1798
ydon	-12.1799
▁Copa	-12.18
▁relocat	-12.1802
osis	-12.1803
igger	-12.1807
▁Amor	-12.1808
▁Internationale	-12.1808
NWA	-12.1808
▁diploma	-12.1811
▁mentor	-12.1811
om	-12.1812
Anne	-12.1812
▁Noel	-12.1822
▁isotopes	-12.1825
ide	-12.1827
▁oppose	-12.1828
achi	-12.1833
▁Cind	-12.1834
pan	-12.1837
▁quotation	-12.1838
▁Have	-12.1838
▁riot	-12.1841
emia	-12.1842
▁Philippine	-12.1843
Jan	-12.1844
▁Pain	-12.1845
▁Fighter	-12.1846
▁Den	-12.1847
▁Judge	-12.1848
Andrew	-12.1849
▁Pap	-12.185
Carl	-12.1851
▁harp	-12.1852
▁Tram	-12.1854
lock	-12.1854
▁Glenn	-12.1855
tension	-12.1858
▁rational	-12.186
hard	-12.186
▁Poles	-12.1867
▁5000	-12.1867
▁cuts	-12.187
▁moist	-12.187
▁Drew	-12.1878
▁Foot	-12.1878
▁Door	-12.1882
▁Ferrar	-12.1882
▁orchestras	-12.1882
▁Unter	-12.1884
▁GB	-12.189
▁emphasize	-12.1893
▁tough	-12.1895
Fran	-12.1896
▁enlighten	-12.1896
▁tattoo	-12.1896
▁Boulevard	-12.1896
▁terminology	-12.1896
▁Phantom	-12.1896
▁Athenian	-12.1896
▁Mirror	-12.1897
▁Babylon	-12.1897
▁vowel	-12.1897
▁Jaguar	-12.1897
▁Karakoram	-12.1897
▁BMI	-12.1897
▁intersection	-12.1898
▁impressive	-12.1898
aq	-12.1899
▁crude	-12.1899
▁thinner	-12.1899
▁Candidate	-12.19
▁1/2	-12.19
▁devil	-12.19
▁thickness	-12.19
▁investor	-12.1901
▁Dear	-12.1901
▁incumbent	-12.1901
▁consultant	-12.1901
▁fake	-12.1902
▁beloved	-12.1902
▁Spice	-12.1902
▁primate	-12.1903
▁Buren	-12.1904
▁Emilia	-12.1904
▁Molotov	-12.1904
Naomi	-12.1905
▁Rochester	-12.1905
▁Associated	-12.1906
▁royalty	-12.1906
▁Chola	-12.1907
▁chronology	-12.1908
▁Vasari	-12.1908
▁Lubb	-12.191
▁Griffith	-12.191
▁Kir	-12.1911
▁insight	-12.1912
▁AIDS	-12.1912
▁Firefly	-12.1912
▁tornadoes	-12.1913
▁2014	-12.1913
▁Stories	-12.1914
▁Earthsea	-12.1915
▁portrayal	-12.1916
woman	-12.1916
▁uncertain	-12.1916
▁Bot	-12.1918
nominat	-12.1918
▁Rican	-12.192
▁specialize	-12.192
Hardcore	-12.192
▁Tank	-12.1921
▁Je	-12.1921
▁supplier	-12.1921
▁Flyers	-12.1923
▁drag	-12.1923
▁chemically	-12.1924
▁Boutros	-12.1924
walpind	-12.1925
▁Pegg	-12.1925
▁Sugar	-12.1925
divisi	-12.1928
▁Danes	-12.1929
▁Zen	-12.1933
▁Popular	-12.1934
▁developmental	-12.1935
▁Gear	-12.1935
▁144	-12.1936
▁AOL	-12.1938
▁Helmut	-12.1939
▁Wade	-12.1942
▁Wash	-12.1944
▁anchors	-12.1949
Super	-12.1949
Anhalt	-12.1953
▁devis	-12.1953
▁Hayes	-12.1954
▁restrict	-12.1954
2010	-12.1954
Atlantique	-12.1955
▁Stra	-12.1955
ique	-12.1955
specific	-12.1955
ipus	-12.1955
grow	-12.1956
normal	-12.1956
second	-12.1957
▁Vida	-12.1957
▁ecolog	-12.1963
▁CP	-12.1965
Brian	-12.1966
▁conve	-12.1966
▁complement	-12.1967
▁ji	-12.197
xley	-12.1972
band	-12.1972
▁consolidat	-12.1975
▁Cros	-12.1978
▁Ida	-12.1978
▁preach	-12.1979
▁Cher	-12.198
▁Cool	-12.1982
▁Hole	-12.1985
▁SA	-12.1987
▁Template	-12.1988
14	-12.1999
ency	-12.2008
alone	-12.2009
▁Wilde	-12.2009
▁fate	-12.2009
▁Palma	-12.2009
▁Kamak	-12.2011
ure	-12.2013
▁circum	-12.2015
▁Rule	-12.2017
▁Sisters	-12.2019
▁Level	-12.2019
▁320	-12.202
▁skiing	-12.2022
cut	-12.2023
▁bulb	-12.2024
▁mills	-12.2024
▁Lew	-12.2025
▁blame	-12.2027
▁tent	-12.2029
▁Writing	-12.2031
Tim	-12.2032
llowing	-12.2033
qualities	-12.204
▁Loch	-12.2042
▁Provincial	-12.2043
▁Pack	-12.2044
▁Pay	-12.2051
ami	-12.2053
▁Sart	-12.2054
bus	-12.2057
▁ration	-12.2057
▁wage	-12.2058
forming	-12.2058
mura	-12.2059
▁108	-12.2061
▁manifest	-12.2062
▁Lemon	-12.2062
▁conjunction	-12.2063
▁hummingbird	-12.2063
▁JavaScript	-12.2063
▁Tribune	-12.2063
▁clerk	-12.2063
Quentin	-12.2063
▁automaker	-12.2063
▁flank	-12.2063
▁pursuit	-12.2063
▁comparative	-12.2063
▁pilgrimage	-12.2063
▁vacation	-12.2063
▁Fahrenheit	-12.2064
▁Partition	-12.2064
▁niece	-12.2064
▁petition	-12.2064
▁Apostolic	-12.2064
▁intervention	-12.2065
▁pulp	-12.2065
▁Honey	-12.2066
▁Reynolds	-12.2066
▁Tramway	-12.2066
▁Session	-12.2066
▁gateway	-12.2066
▁retina	-12.2067
▁acquisition	-12.2067
▁semitone	-12.2067
▁Seminole	-12.2067
▁jury	-12.2069
▁Linds	-12.2069
▁Enlightenment	-12.2069
▁bind	-12.207
▁Abbado	-12.207
▁Rescue	-12.2071
▁rookie	-12.2072
▁Rihanna	-12.2073
▁Brom	-12.2077
▁Hoover	-12.2077
▁renewable	-12.2078
aea	-12.2079
▁Laureate	-12.2081
▁Hammond	-12.2081
▁Tracy	-12.2081
▁Heavy	-12.2082
▁Turin	-12.2083
▁gentle	-12.2084
▁attach	-12.2085
▁Brook	-12.2085
▁Yuan	-12.2087
▁heading	-12.2087
▁Gerard	-12.2087
iest	-12.2088
▁Glass	-12.2088
▁Chiapas	-12.209
atterson	-12.209
▁qin	-12.209
▁Kannad	-12.209
▁Ibn	-12.2091
rah	-12.2093
ief	-12.2095
▁Maximilian	-12.2096
▁OpenOffice	-12.2097
▁Betty	-12.2097
▁Birth	-12.2098
SV	-12.2099
arley	-12.2099
▁Look	-12.2099
▁burnt	-12.2099
▁Description	-12.2101
▁Barton	-12.2104
▁tonnes	-12.2104
ignan	-12.2104
▁Clement	-12.2106
▁Hobb	-12.2107
▁contraction	-12.2107
Johann	-12.2109
▁Edith	-12.2109
▁psycho	-12.2111
▁spa	-12.2118
.25	-12.2119
▁MC	-12.212
Previous	-12.2122
volume	-12.2125
iat	-12.2125
▁Ker	-12.2125
Sarah	-12.2125
punk	-12.2125
▁thym	-12.2127
▁Smithson	-12.2128
Bernard	-12.213
▁bac	-12.213
▁Darmstadt	-12.213
ultimedia	-12.2131
▁Blu	-12.2131
Situat	-12.2134
▁Mow	-12.2134
Six	-12.2135
▁kidnapp	-12.2136
▁Prophet	-12.2137
Bob	-12.2138
Union	-12.2138
▁Mt	-12.2138
beat	-12.2139
aghan	-12.214
speakers	-12.2145
▁recorder	-12.2145
▁tes	-12.2145
▁Tha	-12.2146
▁Cr	-12.2147
nen	-12.2148
▁fauna	-12.2149
▁pirates	-12.215
hen	-12.2151
isdom	-12.2151
▁resembl	-12.2151
▁symmetric	-12.2152
▁Carv	-12.2152
let	-12.2153
▁Cycle	-12.2154
▁Boxing	-12.2156
human	-12.2157
▁Gato	-12.2158
▁Overview	-12.2158
▁thyroid	-12.2161
▁Wil	-12.2161
▁Training	-12.2167
▁Hit	-12.217
▁downward	-12.2171
ping	-12.2174
▁theft	-12.2177
tta	-12.2178
▁Espa	-12.2179
▁Minute	-12.2179
nau	-12.2181
series	-12.2181
▁observ	-12.2184
▁vent	-12.2186
print	-12.2187
zion	-12.2188
▁Va	-12.2189
▁Fern	-12.2191
▁shark	-12.2191
▁Ricard	-12.2193
▁labour	-12.2194
▁Cade	-12.2194
▁surf	-12.2202
xi	-12.2202
▁3.0	-12.2202
45	-12.2205
fi	-12.2206
▁Ballar	-12.2209
Mar	-12.221
▁stripp	-12.221
DVD	-12.2222
olecular	-12.2225
▁Burm	-12.2226
▁Kobe	-12.223
▁cruise	-12.2232
▁prodig	-12.2232
Stebbins	-12.2232
▁flask	-12.2232
▁Rubinstein	-12.2233
▁stuck	-12.2233
▁debris	-12.2233
▁militia	-12.2233
▁Resort	-12.2233
▁slender	-12.2233
▁merit	-12.2233
▁funny	-12.2233
▁selenium	-12.2233
▁squirrel	-12.2233
▁automotive	-12.2233
▁Tai	-12.2234
▁bandwidth	-12.2234
▁foul	-12.2234
▁Equator	-12.2234
▁Cruella	-12.2234
▁Database	-12.2234
geot	-12.2234
▁gymnastic	-12.2234
▁receptor	-12.2234
▁Advisor	-12.2235
▁geologist	-12.2235
▁scripture	-12.2235
▁Lebanese	-12.2235
▁Kerala	-12.2235
▁UCI	-12.2236
▁Avalanche	-12.2237
▁maiden	-12.2238
▁lagoon	-12.2238
▁Amateur	-12.2239
▁Butler	-12.2239
▁ankle	-12.2239
▁UFC	-12.224
▁Dáil	-12.2241
▁upright	-12.2241
▁Burns	-12.2241
▁daylight	-12.2241
▁Cancer	-12.2242
▁Agent	-12.2244
▁gear	-12.2247
▁Allison	-12.2247
1987/	-12.2247
station	-12.2248
▁Bur	-12.2248
▁Palo	-12.2248
▁corruption	-12.2248
▁Aberdeenshire	-12.2249
▁Nothing	-12.2252
Marguerite	-12.2253
▁orphan	-12.2254
▁118	-12.2254
▁Ruby	-12.2256
elow	-12.2256
sputin	-12.2259
▁Once	-12.2261
▁157	-12.2262
tha	-12.2264
▁Barb	-12.2264
▁mast	-12.2265
▁confined	-12.2265
▁Charizard	-12.2265
lyn	-12.227
▁Chocolat	-12.2271
▁capp	-12.2271
Grand	-12.2274
▁Kohl	-12.2275
839	-12.2277
aging	-12.2279
▁Roche	-12.228
▁Eris	-12.228
▁Ry	-12.2284
▁1779	-12.2285
▁Frei	-12.2285
▁tendenc	-12.2288
▁utiliz	-12.2289
▁Faroe	-12.229
▁Manor	-12.2293
▁Tea	-12.2294
▁Xin	-12.2294
▁Pen	-12.2295
Hungarian	-12.2297
`	-12.2297
▁Beverl	-12.23
▁posts	-12.23
▁knowing	-12.23
three	-12.2303
belt	-12.2304
teur	-12.2306
▁148	-12.2308
▁Origins	-12.2313
▁300,000	-12.2314
OC	-12.2317
▁beak	-12.2319
oke	-12.232
▁Barr	-12.2322
▁boxe	-12.2323
rail	-12.2323
Second	-12.2331
oid	-12.2334
▁chips	-12.2334
▁Chant	-12.2335
▁185	-12.2338
erez	-12.2339
aday	-12.2342
gau	-12.2345
mmer	-12.2346
neck	-12.2349
▁duet	-12.2349
ied	-12.2351
ndez	-12.2351
▁dynasti	-12.2357
▁intend	-12.2358
illard	-12.2362
▁economical	-12.2363
▁metro	-12.2369
02	-12.2371
▁facts	-12.2374
▁auction	-12.2376
▁differently	-12.2376
je	-12.2378
uni	-12.2381
▁explode	-12.2382
▁Bering	-12.2383
px	-12.2384
▁rider	-12.2384
run	-12.2387
▁Hears	-12.2389
▁NO	-12.2389
▁matur	-12.2393
states	-12.2393
nos	-12.2394
▁Scandinavia	-12.2395
▁Polynesia	-12.2397
▁captur	-12.2398
pit	-12.2402
▁Damn	-12.2403
▁Winners	-12.2404
▁enact	-12.2404
édération	-12.2405
▁Zaragoza	-12.2405
▁carbohydrate	-12.2405
▁satirical	-12.2405
▁aromatic	-12.2405
▁stronghold	-12.2405
▁RKO	-12.2405
▁persecution	-12.2406
▁proponent	-12.2406
▁stack	-12.2406
▁exponential	-12.2406
▁martyr	-12.2406
▁Picasso	-12.2406
▁Madras	-12.2406
▁initiative	-12.2406
▁psychedelic	-12.2406
▁capabilities	-12.2407
▁meteorologist	-12.2407
▁Chihuahua	-12.2408
▁Gorge	-12.2408
▁Karajan	-12.2408
▁bundle	-12.2408
▁FOX	-12.2408
▁overlook	-12.2409
▁Schleswig	-12.241
▁classroom	-12.241
▁Nolan	-12.241
▁illustrator	-12.241
▁ICD	-12.2411
▁donation	-12.2411
▁Upp	-12.2413
▁adaptive	-12.2413
▁waist	-12.2413
▁Velvet	-12.2413
▁Cherry	-12.2414
▁solvent	-12.2414
▁Lives	-12.2414
▁humorous	-12.2414
[...]
